{
  "version": "1.0",
  "truncation": {
    "direction": "Right",
    "max_length": 31,
    "strategy": "LongestFirst",
    "stride": 0
  },
  "padding": {
    "strategy": {
      "Fixed": 31
    },
    "direction": "Right",
    "pad_to_multiple_of": null,
    "pad_id": 4,
    "pad_type_id": 0,
    "pad_token": "[MASK]"
  },
  "added_tokens": [
    {
      "id": 0,
      "content": "[UNK]",
      "single_word": false,
      "lstrip": false,
      "rstrip": false,
      "normalized": false,
      "special": true
    },
    {
      "id": 1,
      "content": "[PAD]",
      "single_word": false,
      "lstrip": false,
      "rstrip": false,
      "normalized": false,
      "special": true
    },
    {
      "id": 2,
      "content": "[CLS]",
      "single_word": false,
      "lstrip": false,
      "rstrip": false,
      "normalized": false,
      "special": true
    },
    {
      "id": 3,
      "content": "[SEP]",
      "single_word": false,
      "lstrip": false,
      "rstrip": false,
      "normalized": false,
      "special": true
    },
    {
      "id": 4,
      "content": "[MASK]",
      "single_word": false,
      "lstrip": false,
      "rstrip": false,
      "normalized": false,
      "special": true
    },
    {
      "id": 32000,
      "content": "[Q] ",
      "single_word": false,
      "lstrip": false,
      "rstrip": false,
      "normalized": true,
      "special": false
    },
    {
      "id": 32001,
      "content": "[D] ",
      "single_word": false,
      "lstrip": false,
      "rstrip": false,
      "normalized": true,
      "special": false
    }
  ],
  "normalizer": {
    "type": "Sequence",
    "normalizers": [
      {
        "type": "NFKC"
      },
      {
        "type": "Replace",
        "pattern": {
          "String": "[\\n\\r]+"
        },
        "content": " "
      }
    ]
  },
  "pre_tokenizer": {
    "type": "Sequence",
    "pretokenizers": [
      {
        "type": "WhitespaceSplit"
      },
      {
        "type": "Punctuation",
        "behavior": "Isolated"
      }
    ]
  },
  "post_processor": {
    "type": "TemplateProcessing",
    "single": [
      {
        "SpecialToken": {
          "id": "[CLS]",
          "type_id": 0
        }
      },
      {
        "Sequence": {
          "id": "A",
          "type_id": 0
        }
      },
      {
        "SpecialToken": {
          "id": "[SEP]",
          "type_id": 0
        }
      }
    ],
    "pair": [
      {
        "SpecialToken": {
          "id": "[CLS]",
          "type_id": 0
        }
      },
      {
        "Sequence": {
          "id": "A",
          "type_id": 0
        }
      },
      {
        "SpecialToken": {
          "id": "[SEP]",
          "type_id": 0
        }
      },
      {
        "Sequence": {
          "id": "B",
          "type_id": 1
        }
      },
      {
        "SpecialToken": {
          "id": "[SEP]",
          "type_id": 1
        }
      }
    ],
    "special_tokens": {
      "[CLS]": {
        "id": "[CLS]",
        "ids": [
          2
        ],
        "tokens": [
          "[CLS]"
        ]
      },
      "[SEP]": {
        "id": "[SEP]",
        "ids": [
          3
        ],
        "tokens": [
          "[SEP]"
        ]
      }
    }
  },
  "decoder": {
    "type": "BPEDecoder",
    "suffix": "</w>"
  },
  "model": {
    "type": "BPE",
    "dropout": null,
    "unk_token": null,
    "continuing_subword_prefix": null,
    "end_of_word_suffix": null,
    "fuse_unk": false,
    "byte_fallback": false,
    "ignore_merges": false,
    "vocab": {
      "[UNK]": 0,
      "[PAD]": 1,
      "[CLS]": 2,
      "[SEP]": 3,
      "[MASK]": 4,
      "\u0001": 5,
      "\u0002": 6,
      "\u0003": 7,
      "\u0004": 8,
      "\u0005": 9,
      "\u0006": 10,
      "\u0007": 11,
      "\b": 12,
      "\u000e": 13,
      "\u000f": 14,
      "\u0010": 15,
      "\u0011": 16,
      "\u0012": 17,
      "\u0013": 18,
      "\u0014": 19,
      "\u0015": 20,
      "\u0016": 21,
      "\u0017": 22,
      "\u0018": 23,
      "\u0019": 24,
      "\u001a": 25,
      "\u001b": 26,
      "\u001c": 27,
      "\u001d": 28,
      "\u001e": 29,
      "\u001f": 30,
      "!": 31,
      "\"": 32,
      "#": 33,
      "$": 34,
      "%": 35,
      "&": 36,
      "'": 37,
      "(": 38,
      ")": 39,
      "*": 40,
      "+": 41,
      ",": 42,
      "-": 43,
      ".": 44,
      "/": 45,
      "0": 46,
      "1": 47,
      "2": 48,
      "3": 49,
      "4": 50,
      "5": 51,
      "6": 52,
      "7": 53,
      "8": 54,
      "9": 55,
      ":": 56,
      ";": 57,
      "<": 58,
      "=": 59,
      ">": 60,
      "?": 61,
      "@": 62,
      "A": 63,
      "B": 64,
      "C": 65,
      "D": 66,
      "E": 67,
      "F": 68,
      "G": 69,
      "H": 70,
      "I": 71,
      "J": 72,
      "K": 73,
      "L": 74,
      "M": 75,
      "N": 76,
      "O": 77,
      "P": 78,
      "Q": 79,
      "R": 80,
      "S": 81,
      "T": 82,
      "U": 83,
      "V": 84,
      "W": 85,
      "X": 86,
      "Y": 87,
      "Z": 88,
      "[": 89,
      "\\": 90,
      "]": 91,
      "^": 92,
      "_": 93,
      "`": 94,
      "a": 95,
      "b": 96,
      "c": 97,
      "d": 98,
      "e": 99,
      "f": 100,
      "g": 101,
      "h": 102,
      "i": 103,
      "j": 104,
      "k": 105,
      "l": 106,
      "m": 107,
      "n": 108,
      "o": 109,
      "p": 110,
      "q": 111,
      "r": 112,
      "s": 113,
      "t": 114,
      "u": 115,
      "v": 116,
      "w": 117,
      "x": 118,
      "y": 119,
      "z": 120,
      "{": 121,
      "|": 122,
      "}": 123,
      "~": 124,
      "": 125,
      "": 126,
      "": 127,
      "": 128,
      "": 129,
      "": 130,
      "": 131,
      "": 132,
      "": 133,
      "": 134,
      "": 135,
      "": 136,
      "": 137,
      "": 138,
      "": 139,
      "": 140,
      "": 141,
      "": 142,
      "": 143,
      "": 144,
      "": 145,
      "": 146,
      "": 147,
      "": 148,
      "": 149,
      "": 150,
      "": 151,
      "": 152,
      "": 153,
      "": 154,
      "": 155,
      "¡": 156,
      "¢": 157,
      "£": 158,
      "¤": 159,
      "¥": 160,
      "¦": 161,
      "§": 162,
      "©": 163,
      "«": 164,
      "¬": 165,
      "­": 166,
      "®": 167,
      "°": 168,
      "±": 169,
      "¶": 170,
      "·": 171,
      "»": 172,
      "¿": 173,
      "À": 174,
      "Á": 175,
      "Â": 176,
      "Ã": 177,
      "Ä": 178,
      "Å": 179,
      "Æ": 180,
      "Ç": 181,
      "È": 182,
      "É": 183,
      "Ê": 184,
      "Ë": 185,
      "Ì": 186,
      "Í": 187,
      "Î": 188,
      "Ï": 189,
      "Ð": 190,
      "Ñ": 191,
      "Ò": 192,
      "Ó": 193,
      "Ô": 194,
      "Õ": 195,
      "Ö": 196,
      "×": 197,
      "Ø": 198,
      "Ù": 199,
      "Ú": 200,
      "Û": 201,
      "Ü": 202,
      "Ý": 203,
      "Þ": 204,
      "ß": 205,
      "à": 206,
      "á": 207,
      "â": 208,
      "ã": 209,
      "ä": 210,
      "å": 211,
      "æ": 212,
      "ç": 213,
      "è": 214,
      "é": 215,
      "ê": 216,
      "ë": 217,
      "ì": 218,
      "í": 219,
      "î": 220,
      "ï": 221,
      "ð": 222,
      "ñ": 223,
      "ò": 224,
      "ó": 225,
      "ô": 226,
      "õ": 227,
      "ö": 228,
      "÷": 229,
      "ø": 230,
      "ù": 231,
      "ú": 232,
      "û": 233,
      "ü": 234,
      "ý": 235,
      "þ": 236,
      "ÿ": 237,
      "Ā": 238,
      "ā": 239,
      "Ă": 240,
      "ă": 241,
      "Ą": 242,
      "ą": 243,
      "Ć": 244,
      "ć": 245,
      "Ĉ": 246,
      "ĉ": 247,
      "Ċ": 248,
      "ċ": 249,
      "Č": 250,
      "č": 251,
      "Ď": 252,
      "ď": 253,
      "Đ": 254,
      "đ": 255,
      "Ē": 256,
      "ē": 257,
      "Ĕ": 258,
      "ĕ": 259,
      "Ė": 260,
      "ė": 261,
      "Ę": 262,
      "ę": 263,
      "Ě": 264,
      "ě": 265,
      "Ĝ": 266,
      "ĝ": 267,
      "Ğ": 268,
      "ğ": 269,
      "Ġ": 270,
      "ġ": 271,
      "Ģ": 272,
      "ģ": 273,
      "Ĥ": 274,
      "ĥ": 275,
      "Ħ": 276,
      "ħ": 277,
      "Ĩ": 278,
      "ĩ": 279,
      "Ī": 280,
      "ī": 281,
      "Ĭ": 282,
      "ĭ": 283,
      "Į": 284,
      "į": 285,
      "İ": 286,
      "ı": 287,
      "Ĵ": 288,
      "ĵ": 289,
      "Ķ": 290,
      "ķ": 291,
      "ĸ": 292,
      "Ĺ": 293,
      "ĺ": 294,
      "Ļ": 295,
      "ļ": 296,
      "Ľ": 297,
      "ľ": 298,
      "Ł": 299,
      "ł": 300,
      "Ń": 301,
      "ń": 302,
      "Ņ": 303,
      "ņ": 304,
      "Ň": 305,
      "ň": 306,
      "Ŋ": 307,
      "ŋ": 308,
      "Ō": 309,
      "ō": 310,
      "Ŏ": 311,
      "ŏ": 312,
      "Ő": 313,
      "ő": 314,
      "Œ": 315,
      "œ": 316,
      "ŕ": 317,
      "Ŗ": 318,
      "ŗ": 319,
      "Ř": 320,
      "ř": 321,
      "Ś": 322,
      "ś": 323,
      "Ŝ": 324,
      "ŝ": 325,
      "Ş": 326,
      "ş": 327,
      "Š": 328,
      "š": 329,
      "Ţ": 330,
      "ţ": 331,
      "Ť": 332,
      "ť": 333,
      "Ŧ": 334,
      "ŧ": 335,
      "Ũ": 336,
      "ũ": 337,
      "Ū": 338,
      "ū": 339,
      "Ŭ": 340,
      "ŭ": 341,
      "Ů": 342,
      "ů": 343,
      "Ű": 344,
      "ű": 345,
      "Ų": 346,
      "ų": 347,
      "Ŵ": 348,
      "ŵ": 349,
      "Ŷ": 350,
      "ŷ": 351,
      "Ÿ": 352,
      "Ź": 353,
      "ź": 354,
      "Ż": 355,
      "ż": 356,
      "Ž": 357,
      "ž": 358,
      "Ɔ": 359,
      "ƈ": 360,
      "Ɖ": 361,
      "Ƌ": 362,
      "ƌ": 363,
      "Ǝ": 364,
      "Ə": 365,
      "Ɛ": 366,
      "Ƒ": 367,
      "ƒ": 368,
      "Ɠ": 369,
      "Ɣ": 370,
      "ƕ": 371,
      "Ɨ": 372,
      "ƙ": 373,
      "ƚ": 374,
      "ƞ": 375,
      "Ơ": 376,
      "ơ": 377,
      "ƣ": 378,
      "Ƨ": 379,
      "ƨ": 380,
      "Ʃ": 381,
      "Ư": 382,
      "ư": 383,
      "Ƴ": 384,
      "ƴ": 385,
      "Ƶ": 386,
      "ƶ": 387,
      "ǀ": 388,
      "ǁ": 389,
      "ǂ": 390,
      "ǃ": 391,
      "Ǎ": 392,
      "ǎ": 393,
      "ǐ": 394,
      "ǒ": 395,
      "ǔ": 396,
      "ǖ": 397,
      "ǘ": 398,
      "ǚ": 399,
      "ǜ": 400,
      "ǝ": 401,
      "ǣ": 402,
      "Ǧ": 403,
      "ǧ": 404,
      "Ǫ": 405,
      "ǫ": 406,
      "Ǭ": 407,
      "ǭ": 408,
      "ǰ": 409,
      "Ǵ": 410,
      "ǵ": 411,
      "Ƿ": 412,
      "ǹ": 413,
      "Ǻ": 414,
      "ǻ": 415,
      "ǽ": 416,
      "ǿ": 417,
      "ȁ": 418,
      "ȃ": 419,
      "ȇ": 420,
      "Ȋ": 421,
      "ȋ": 422,
      "ȏ": 423,
      "Ȓ": 424,
      "ȓ": 425,
      "ȗ": 426,
      "Ș": 427,
      "ș": 428,
      "Ț": 429,
      "ț": 430,
      "Ȝ": 431,
      "ȝ": 432,
      "Ȟ": 433,
      "ȟ": 434,
      "ȧ": 435,
      "ȫ": 436,
      "ȯ": 437,
      "ȳ": 438,
      "Ⱥ": 439,
      "Ʌ": 440,
      "ɇ": 441,
      "ɐ": 442,
      "ɑ": 443,
      "ɒ": 444,
      "ɓ": 445,
      "ɔ": 446,
      "ɕ": 447,
      "ɖ": 448,
      "ɗ": 449,
      "ɘ": 450,
      "ə": 451,
      "ɚ": 452,
      "ɛ": 453,
      "ɜ": 454,
      "ɞ": 455,
      "ɟ": 456,
      "ɠ": 457,
      "ɡ": 458,
      "ɢ": 459,
      "ɣ": 460,
      "ɤ": 461,
      "ɥ": 462,
      "ɦ": 463,
      "ɨ": 464,
      "ɩ": 465,
      "ɪ": 466,
      "ɫ": 467,
      "ɬ": 468,
      "ɭ": 469,
      "ɯ": 470,
      "ɰ": 471,
      "ɱ": 472,
      "ɲ": 473,
      "ɳ": 474,
      "ɴ": 475,
      "ɵ": 476,
      "ɶ": 477,
      "ɷ": 478,
      "ɸ": 479,
      "ɹ": 480,
      "ɺ": 481,
      "ɻ": 482,
      "ɽ": 483,
      "ɾ": 484,
      "ʀ": 485,
      "ʁ": 486,
      "ʂ": 487,
      "ʃ": 488,
      "ʄ": 489,
      "ʆ": 490,
      "ʈ": 491,
      "ʉ": 492,
      "ʊ": 493,
      "ʋ": 494,
      "ʌ": 495,
      "ʍ": 496,
      "ʎ": 497,
      "ʏ": 498,
      "ʐ": 499,
      "ʑ": 500,
      "ʒ": 501,
      "ʔ": 502,
      "ʕ": 503,
      "ʙ": 504,
      "ʜ": 505,
      "ʝ": 506,
      "ʟ": 507,
      "ʢ": 508,
      "ʣ": 509,
      "ʤ": 510,
      "ʦ": 511,
      "ʧ": 512,
      "ʹ": 513,
      "ʺ": 514,
      "ʻ": 515,
      "ʼ": 516,
      "ʽ": 517,
      "ʾ": 518,
      "ʿ": 519,
      "ˀ": 520,
      "ˁ": 521,
      "˂": 522,
      "˃": 523,
      "˄": 524,
      "˅": 525,
      "ˆ": 526,
      "ˇ": 527,
      "ˈ": 528,
      "ˌ": 529,
      "ː": 530,
      "ˑ": 531,
      "˒": 532,
      "˓": 533,
      "˖": 534,
      "˗": 535,
      "˥": 536,
      "˧": 537,
      "˩": 538,
      "ˮ": 539,
      "̀": 540,
      "́": 541,
      "̂": 542,
      "̃": 543,
      "̄": 544,
      "̅": 545,
      "̆": 546,
      "̇": 547,
      "̈": 548,
      "̉": 549,
      "̊": 550,
      "̋": 551,
      "̌": 552,
      "̍": 553,
      "̏": 554,
      "̑": 555,
      "̒": 556,
      "̓": 557,
      "̔": 558,
      "̕": 559,
      "̗": 560,
      "̙": 561,
      "̚": 562,
      "̛": 563,
      "̜": 564,
      "̝": 565,
      "̞": 566,
      "̠": 567,
      "̡": 568,
      "̢": 569,
      "̣": 570,
      "̤": 571,
      "̥": 572,
      "̦": 573,
      "̧": 574,
      "̨": 575,
      "̩": 576,
      "̪": 577,
      "̬": 578,
      "̮": 579,
      "̯": 580,
      "̰": 581,
      "̱": 582,
      "̲": 583,
      "̳": 584,
      "̵": 585,
      "̶": 586,
      "̷": 587,
      "̸": 588,
      "̽": 589,
      "͂": 590,
      "ͅ": 591,
      "͊": 592,
      "͏": 593,
      "͑": 594,
      "͕": 595,
      "͖": 596,
      "͗": 597,
      "͘": 598,
      "͙": 599,
      "͛": 600,
      "͜": 601,
      "͝": 602,
      "͞": 603,
      "͟": 604,
      "͠": 605,
      "͡": 606,
      "͢": 607,
      "ͣ": 608,
      "ͬ": 609,
      "Ͳ": 610,
      "Ϳ": 611,
      "΀": 612,
      "΁": 613,
      "Ά": 614,
      "Έ": 615,
      "Ή": 616,
      "Ί": 617,
      "Ό": 618,
      "Ύ": 619,
      "ΐ": 620,
      "Α": 621,
      "Β": 622,
      "Γ": 623,
      "Δ": 624,
      "Ε": 625,
      "Ζ": 626,
      "Η": 627,
      "Θ": 628,
      "Ι": 629,
      "Κ": 630,
      "Λ": 631,
      "Μ": 632,
      "Ν": 633,
      "Ξ": 634,
      "Ο": 635,
      "Π": 636,
      "Ρ": 637,
      "Σ": 638,
      "Τ": 639,
      "Υ": 640,
      "Φ": 641,
      "Χ": 642,
      "Ψ": 643,
      "Ω": 644,
      "Ϊ": 645,
      "Ϋ": 646,
      "ά": 647,
      "έ": 648,
      "ή": 649,
      "ί": 650,
      "ΰ": 651,
      "α": 652,
      "β": 653,
      "γ": 654,
      "δ": 655,
      "ε": 656,
      "ζ": 657,
      "η": 658,
      "θ": 659,
      "ι": 660,
      "κ": 661,
      "λ": 662,
      "μ": 663,
      "ν": 664,
      "ξ": 665,
      "ο": 666,
      "π": 667,
      "ρ": 668,
      "ς": 669,
      "σ": 670,
      "τ": 671,
      "υ": 672,
      "φ": 673,
      "χ": 674,
      "ψ": 675,
      "ω": 676,
      "ϊ": 677,
      "ϋ": 678,
      "ό": 679,
      "ύ": 680,
      "ώ": 681,
      "Ϛ": 682,
      "ϛ": 683,
      "Ϝ": 684,
      "ϝ": 685,
      "Ϟ": 686,
      "ϟ": 687,
      "ϡ": 688,
      "Ϣ": 689,
      "Ϩ": 690,
      "ϩ": 691,
      "Ϫ": 692,
      "Ϭ": 693,
      "ϭ": 694,
      "Ϯ": 695,
      "ϯ": 696,
      "ϳ": 697,
      "ϸ": 698,
      "Ѐ": 699,
      "Ё": 700,
      "Ђ": 701,
      "Є": 702,
      "Ѕ": 703,
      "І": 704,
      "Ї": 705,
      "Ј": 706,
      "Љ": 707,
      "Њ": 708,
      "Ћ": 709,
      "Ѝ": 710,
      "Ў": 711,
      "Џ": 712,
      "А": 713,
      "Б": 714,
      "В": 715,
      "Г": 716,
      "Д": 717,
      "Е": 718,
      "Ж": 719,
      "З": 720,
      "И": 721,
      "Й": 722,
      "К": 723,
      "Л": 724,
      "М": 725,
      "Н": 726,
      "О": 727,
      "П": 728,
      "Р": 729,
      "С": 730,
      "Т": 731,
      "У": 732,
      "Ф": 733,
      "Х": 734,
      "Ц": 735,
      "Ч": 736,
      "Ш": 737,
      "Щ": 738,
      "Ъ": 739,
      "Ы": 740,
      "Ь": 741,
      "Э": 742,
      "Ю": 743,
      "Я": 744,
      "а": 745,
      "б": 746,
      "в": 747,
      "г": 748,
      "д": 749,
      "е": 750,
      "ж": 751,
      "з": 752,
      "и": 753,
      "й": 754,
      "к": 755,
      "л": 756,
      "м": 757,
      "н": 758,
      "о": 759,
      "п": 760,
      "р": 761,
      "с": 762,
      "т": 763,
      "у": 764,
      "ф": 765,
      "х": 766,
      "ц": 767,
      "ч": 768,
      "ш": 769,
      "щ": 770,
      "ъ": 771,
      "ы": 772,
      "ь": 773,
      "э": 774,
      "ю": 775,
      "я": 776,
      "ѐ": 777,
      "ё": 778,
      "ђ": 779,
      "ѓ": 780,
      "є": 781,
      "ѕ": 782,
      "і": 783,
      "ї": 784,
      "ј": 785,
      "љ": 786,
      "њ": 787,
      "ћ": 788,
      "ќ": 789,
      "ѝ": 790,
      "ў": 791,
      "Ѡ": 792,
      "Ѣ": 793,
      "ѣ": 794,
      "ѥ": 795,
      "Ѧ": 796,
      "ѧ": 797,
      "Ѩ": 798,
      "Ѫ": 799,
      "Ѭ": 800,
      "Ѯ": 801,
      "ѯ": 802,
      "Ѱ": 803,
      "ѱ": 804,
      "Ѳ": 805,
      "ѳ": 806,
      "Ѵ": 807,
      "ѵ": 808,
      "ѹ": 809,
      "҄": 810,
      "҉": 811,
      "ґ": 812,
      "Ғ": 813,
      "ғ": 814,
      "җ": 815,
      "ҙ": 816,
      "Қ": 817,
      "қ": 818,
      "ҝ": 819,
      "ҡ": 820,
      "Ң": 821,
      "ң": 822,
      "ҧ": 823,
      "Ҫ": 824,
      "ҫ": 825,
      "ҭ": 826,
      "Ү": 827,
      "ү": 828,
      "Ұ": 829,
      "ұ": 830,
      "Ҳ": 831,
      "ҳ": 832,
      "Ҷ": 833,
      "ҷ": 834,
      "һ": 835,
      "Ӏ": 836,
      "ӏ": 837,
      "ӑ": 838,
      "ӓ": 839,
      "ӕ": 840,
      "ӗ": 841,
      "ә": 842,
      "Ӧ": 843,
      "ӧ": 844,
      "Ө": 845,
      "ө": 846,
      "ӯ": 847,
      "ӵ": 848,
      "Ӿ": 849,
      "ԁ": 850,
      "Ԍ": 851,
      "Ԑ": 852,
      "ԑ": 853,
      "ԓ": 854,
      "Ա": 855,
      "Բ": 856,
      "Գ": 857,
      "Դ": 858,
      "Ե": 859,
      "Զ": 860,
      "Թ": 861,
      "Ժ": 862,
      "Լ": 863,
      "Խ": 864,
      "Ծ": 865,
      "Կ": 866,
      "Հ": 867,
      "Մ": 868,
      "Ն": 869,
      "Շ": 870,
      "Ո": 871,
      "Պ": 872,
      "Ջ": 873,
      "Ռ": 874,
      "Ս": 875,
      "Վ": 876,
      "Տ": 877,
      "Ց": 878,
      "Ք": 879,
      "Օ": 880,
      "Ֆ": 881,
      "ՙ": 882,
      "՚": 883,
      "՛": 884,
      "ա": 885,
      "բ": 886,
      "գ": 887,
      "դ": 888,
      "ե": 889,
      "զ": 890,
      "է": 891,
      "ը": 892,
      "թ": 893,
      "ի": 894,
      "լ": 895,
      "խ": 896,
      "ծ": 897,
      "կ": 898,
      "հ": 899,
      "ձ": 900,
      "ղ": 901,
      "ճ": 902,
      "մ": 903,
      "յ": 904,
      "ն": 905,
      "շ": 906,
      "ո": 907,
      "չ": 908,
      "պ": 909,
      "ջ": 910,
      "ռ": 911,
      "ս": 912,
      "վ": 913,
      "տ": 914,
      "ր": 915,
      "ց": 916,
      "ւ": 917,
      "փ": 918,
      "ք": 919,
      "օ": 920,
      "֑": 921,
      "֔": 922,
      "֖": 923,
      "֗": 924,
      "֙": 925,
      "֣": 926,
      "֤": 927,
      "֥": 928,
      "֨": 929,
      "֫": 930,
      "֯": 931,
      "ְ": 932,
      "ֱ": 933,
      "ֲ": 934,
      "ֳ": 935,
      "ִ": 936,
      "ֵ": 937,
      "ֶ": 938,
      "ַ": 939,
      "ָ": 940,
      "ֹ": 941,
      "ֺ": 942,
      "ֻ": 943,
      "ּ": 944,
      "ֽ": 945,
      "־": 946,
      "ֿ": 947,
      "ׁ": 948,
      "ׂ": 949,
      "ׇ": 950,
      "א": 951,
      "ב": 952,
      "ג": 953,
      "ד": 954,
      "ה": 955,
      "ו": 956,
      "ז": 957,
      "ח": 958,
      "ט": 959,
      "י": 960,
      "ך": 961,
      "כ": 962,
      "ל": 963,
      "ם": 964,
      "מ": 965,
      "ן": 966,
      "נ": 967,
      "ס": 968,
      "ע": 969,
      "ף": 970,
      "פ": 971,
      "ץ": 972,
      "צ": 973,
      "ק": 974,
      "ר": 975,
      "ש": 976,
      "ת": 977,
      "ײ": 978,
      "׳": 979,
      "״": 980,
      "،": 981,
      "ؕ": 982,
      "؛": 983,
      "؟": 984,
      "ء": 985,
      "آ": 986,
      "أ": 987,
      "ؤ": 988,
      "إ": 989,
      "ئ": 990,
      "ا": 991,
      "ب": 992,
      "ة": 993,
      "ت": 994,
      "ث": 995,
      "ج": 996,
      "ح": 997,
      "خ": 998,
      "د": 999,
      "ذ": 1000,
      "ر": 1001,
      "ز": 1002,
      "س": 1003,
      "ش": 1004,
      "ص": 1005,
      "ض": 1006,
      "ط": 1007,
      "ظ": 1008,
      "ع": 1009,
      "غ": 1010,
      "ـ": 1011,
      "ف": 1012,
      "ق": 1013,
      "ك": 1014,
      "ل": 1015,
      "م": 1016,
      "ن": 1017,
      "ه": 1018,
      "و": 1019,
      "ى": 1020,
      "ي": 1021,
      "ً": 1022,
      "ٌ": 1023,
      "ٍ": 1024,
      "َ": 1025,
      "ُ": 1026,
      "ِ": 1027,
      "ّ": 1028,
      "ْ": 1029,
      "ٓ": 1030,
      "ٔ": 1031,
      "٠": 1032,
      "٢": 1033,
      "٣": 1034,
      "٤": 1035,
      "٥": 1036,
      "٦": 1037,
      "٩": 1038,
      "ٰ": 1039,
      "ٱ": 1040,
      "ٲ": 1041,
      "ٹ": 1042,
      "ٺ": 1043,
      "ٽ": 1044,
      "پ": 1045,
      "ٿ": 1046,
      "چ": 1047,
      "ڈ": 1048,
      "ړ": 1049,
      "ژ": 1050,
      "ښ": 1051,
      "ڠ": 1052,
      "ڤ": 1053,
      "ک": 1054,
      "ڪ": 1055,
      "گ": 1056,
      "ڰ": 1057,
      "ں": 1058,
      "ھ": 1059,
      "ڿ": 1060,
      "ۀ": 1061,
      "ہ": 1062,
      "ۃ": 1063,
      "ۆ": 1064,
      "ۇ": 1065,
      "ۋ": 1066,
      "ی": 1067,
      "ۍ": 1068,
      "ێ": 1069,
      "ې": 1070,
      "ے": 1071,
      "ۓ": 1072,
      "ە": 1073,
      "ۖ": 1074,
      "ۗ": 1075,
      "ۙ": 1076,
      "ۚ": 1077,
      "ۡ": 1078,
      "ۢ": 1079,
      "ۣ": 1080,
      "ۤ": 1081,
      "۩": 1082,
      "۪": 1083,
      "۬": 1084,
      "۱": 1085,
      "۲": 1086,
      "۳": 1087,
      "۵": 1088,
      "۶": 1089,
      "۹": 1090,
      "ܐ": 1091,
      "ܒ": 1092,
      "ܓ": 1093,
      "ܕ": 1094,
      "ܗ": 1095,
      "ܘ": 1096,
      "ܙ": 1097,
      "ܚ": 1098,
      "ܛ": 1099,
      "ܝ": 1100,
      "ܟ": 1101,
      "ܠ": 1102,
      "ܡ": 1103,
      "ܢ": 1104,
      "ܣ": 1105,
      "ܥ": 1106,
      "ܦ": 1107,
      "ܨ": 1108,
      "ܩ": 1109,
      "ܪ": 1110,
      "ܫ": 1111,
      "ܬ": 1112,
      "ܼ": 1113,
      "݂": 1114,
      "ހ": 1115,
      "ރ": 1116,
      "ޅ": 1117,
      "ކ": 1118,
      "އ": 1119,
      "ވ": 1120,
      "މ": 1121,
      "ފ": 1122,
      "ދ": 1123,
      "ލ": 1124,
      "ގ": 1125,
      "ސ": 1126,
      "ޑ": 1127,
      "ޓ": 1128,
      "ޕ": 1129,
      "ަ": 1130,
      "ާ": 1131,
      "ި": 1132,
      "ީ": 1133,
      "ު": 1134,
      "ެ": 1135,
      "ޮ": 1136,
      "ޯ": 1137,
      "ް": 1138,
      "ߊ": 1139,
      "ߏ": 1140,
      "ߛ": 1141,
      "ߝ": 1142,
      "ߦ": 1143,
      "߫": 1144,
      "߬": 1145,
      "ँ": 1146,
      "ं": 1147,
      "ः": 1148,
      "अ": 1149,
      "आ": 1150,
      "इ": 1151,
      "ई": 1152,
      "उ": 1153,
      "ऊ": 1154,
      "ऋ": 1155,
      "ऌ": 1156,
      "ए": 1157,
      "ऐ": 1158,
      "ओ": 1159,
      "औ": 1160,
      "क": 1161,
      "ख": 1162,
      "ग": 1163,
      "घ": 1164,
      "ङ": 1165,
      "च": 1166,
      "छ": 1167,
      "ज": 1168,
      "झ": 1169,
      "ञ": 1170,
      "ट": 1171,
      "ठ": 1172,
      "ड": 1173,
      "ढ": 1174,
      "ण": 1175,
      "त": 1176,
      "थ": 1177,
      "द": 1178,
      "ध": 1179,
      "न": 1180,
      "प": 1181,
      "फ": 1182,
      "ब": 1183,
      "भ": 1184,
      "म": 1185,
      "य": 1186,
      "र": 1187,
      "ल": 1188,
      "ळ": 1189,
      "व": 1190,
      "श": 1191,
      "ष": 1192,
      "स": 1193,
      "ह": 1194,
      "़": 1195,
      "ऽ": 1196,
      "ा": 1197,
      "ि": 1198,
      "ी": 1199,
      "ु": 1200,
      "ू": 1201,
      "ृ": 1202,
      "े": 1203,
      "ै": 1204,
      "ॉ": 1205,
      "ॊ": 1206,
      "ो": 1207,
      "ौ": 1208,
      "्": 1209,
      "ॐ": 1210,
      "॑": 1211,
      "॒": 1212,
      "॓": 1213,
      "॔": 1214,
      "ॠ": 1215,
      "ॡ": 1216,
      "ॢ": 1217,
      "।": 1218,
      "॥": 1219,
      "०": 1220,
      "१": 1221,
      "२": 1222,
      "३": 1223,
      "४": 1224,
      "५": 1225,
      "६": 1226,
      "७": 1227,
      "८": 1228,
      "९": 1229,
      "ॻ": 1230,
      "ॼ": 1231,
      "ॽ": 1232,
      "ॾ": 1233,
      "ॿ": 1234,
      "ঁ": 1235,
      "ং": 1236,
      "ঃ": 1237,
      "অ": 1238,
      "আ": 1239,
      "ই": 1240,
      "উ": 1241,
      "এ": 1242,
      "ও": 1243,
      "ক": 1244,
      "খ": 1245,
      "গ": 1246,
      "ঘ": 1247,
      "ঙ": 1248,
      "চ": 1249,
      "ছ": 1250,
      "জ": 1251,
      "ঞ": 1252,
      "ট": 1253,
      "ঠ": 1254,
      "ড": 1255,
      "ঢ": 1256,
      "ণ": 1257,
      "ত": 1258,
      "থ": 1259,
      "দ": 1260,
      "ধ": 1261,
      "ন": 1262,
      "প": 1263,
      "ফ": 1264,
      "ব": 1265,
      "ভ": 1266,
      "ম": 1267,
      "য": 1268,
      "র": 1269,
      "ল": 1270,
      "শ": 1271,
      "ষ": 1272,
      "স": 1273,
      "হ": 1274,
      "়": 1275,
      "া": 1276,
      "ি": 1277,
      "ী": 1278,
      "ু": 1279,
      "ূ": 1280,
      "ৃ": 1281,
      "ে": 1282,
      "ৈ": 1283,
      "ো": 1284,
      "ৌ": 1285,
      "্": 1286,
      "ৎ": 1287,
      "১": 1288,
      "৮": 1289,
      "ৰ": 1290,
      "ৱ": 1291,
      "৹": 1292,
      "ਂ": 1293,
      "ਅ": 1294,
      "ਆ": 1295,
      "ਇ": 1296,
      "ਈ": 1297,
      "ਉ": 1298,
      "ਏ": 1299,
      "ਐ": 1300,
      "ਓ": 1301,
      "ਕ": 1302,
      "ਖ": 1303,
      "ਗ": 1304,
      "ਘ": 1305,
      "ਚ": 1306,
      "ਜ": 1307,
      "ਟ": 1308,
      "ਠ": 1309,
      "ਡ": 1310,
      "ਣ": 1311,
      "ਤ": 1312,
      "ਥ": 1313,
      "ਦ": 1314,
      "ਧ": 1315,
      "ਨ": 1316,
      "ਪ": 1317,
      "ਬ": 1318,
      "ਭ": 1319,
      "ਮ": 1320,
      "ਯ": 1321,
      "ਰ": 1322,
      "ਲ": 1323,
      "ਵ": 1324,
      "ਸ": 1325,
      "ਹ": 1326,
      "ਾ": 1327,
      "ਿ": 1328,
      "ੀ": 1329,
      "ੁ": 1330,
      "ੂ": 1331,
      "ੇ": 1332,
      "ੈ": 1333,
      "ੋ": 1334,
      "੍": 1335,
      "੦": 1336,
      "੧": 1337,
      "੫": 1338,
      "ੰ": 1339,
      "ੱ": 1340,
      "ં": 1341,
      "અ": 1342,
      "આ": 1343,
      "ઇ": 1344,
      "એ": 1345,
      "ઓ": 1346,
      "ક": 1347,
      "ખ": 1348,
      "ગ": 1349,
      "ઘ": 1350,
      "ચ": 1351,
      "છ": 1352,
      "જ": 1353,
      "ટ": 1354,
      "ડ": 1355,
      "ણ": 1356,
      "ત": 1357,
      "થ": 1358,
      "દ": 1359,
      "ધ": 1360,
      "ન": 1361,
      "પ": 1362,
      "ફ": 1363,
      "બ": 1364,
      "મ": 1365,
      "ય": 1366,
      "ર": 1367,
      "લ": 1368,
      "વ": 1369,
      "શ": 1370,
      "ષ": 1371,
      "સ": 1372,
      "હ": 1373,
      "ા": 1374,
      "િ": 1375,
      "ી": 1376,
      "ુ": 1377,
      "ૂ": 1378,
      "ે": 1379,
      "ૈ": 1380,
      "ો": 1381,
      "્": 1382,
      "ଢ": 1383,
      "ଶ": 1384,
      "ା": 1385,
      "ୀ": 1386,
      "ஃ": 1387,
      "அ": 1388,
      "ஆ": 1389,
      "இ": 1390,
      "உ": 1391,
      "எ": 1392,
      "ஐ": 1393,
      "ஓ": 1394,
      "க": 1395,
      "ங": 1396,
      "ச": 1397,
      "ஜ": 1398,
      "ஞ": 1399,
      "ட": 1400,
      "ண": 1401,
      "த": 1402,
      "ந": 1403,
      "ன": 1404,
      "ப": 1405,
      "ம": 1406,
      "ய": 1407,
      "ர": 1408,
      "ற": 1409,
      "ல": 1410,
      "ள": 1411,
      "ழ": 1412,
      "வ": 1413,
      "ா": 1414,
      "ி": 1415,
      "ீ": 1416,
      "ு": 1417,
      "ூ": 1418,
      "ெ": 1419,
      "ே": 1420,
      "ை": 1421,
      "ொ": 1422,
      "ோ": 1423,
      "்": 1424,
      "௱": 1425,
      "ఁ": 1426,
      "ం": 1427,
      "అ": 1428,
      "ఉ": 1429,
      "ఎ": 1430,
      "క": 1431,
      "గ": 1432,
      "చ": 1433,
      "ట": 1434,
      "డ": 1435,
      "త": 1436,
      "ద": 1437,
      "న": 1438,
      "ప": 1439,
      "ఫ": 1440,
      "బ": 1441,
      "భ": 1442,
      "మ": 1443,
      "య": 1444,
      "ర": 1445,
      "ల": 1446,
      "వ": 1447,
      "ష": 1448,
      "స": 1449,
      "ా": 1450,
      "ి": 1451,
      "ీ": 1452,
      "ు": 1453,
      "ూ": 1454,
      "ె": 1455,
      "ే": 1456,
      "ై": 1457,
      "్": 1458,
      "ಂ": 1459,
      "ಅ": 1460,
      "ಆ": 1461,
      "ಉ": 1462,
      "ಌ": 1463,
      "ಏ": 1464,
      "ಒ": 1465,
      "ಕ": 1466,
      "ಗ": 1467,
      "ಜ": 1468,
      "ಟ": 1469,
      "ಡ": 1470,
      "ಣ": 1471,
      "ತ": 1472,
      "ಥ": 1473,
      "ದ": 1474,
      "ನ": 1475,
      "ಪ": 1476,
      "ಭ": 1477,
      "ಮ": 1478,
      "ಯ": 1479,
      "ರ": 1480,
      "ಲ": 1481,
      "ವ": 1482,
      "ಶ": 1483,
      "ಷ": 1484,
      "ಸ": 1485,
      "ಾ": 1486,
      "ಿ": 1487,
      "ೀ": 1488,
      "ು": 1489,
      "ೂ": 1490,
      "ೆ": 1491,
      "ೇ": 1492,
      "್": 1493,
      "೦": 1494,
      "೧": 1495,
      "೨": 1496,
      "೪": 1497,
      "ം": 1498,
      "അ": 1499,
      "ആ": 1500,
      "എ": 1501,
      "ഐ": 1502,
      "ക": 1503,
      "ഗ": 1504,
      "ങ": 1505,
      "ജ": 1506,
      "ട": 1507,
      "ണ": 1508,
      "ത": 1509,
      "ദ": 1510,
      "ന": 1511,
      "പ": 1512,
      "ഫ": 1513,
      "ബ": 1514,
      "മ": 1515,
      "യ": 1516,
      "ര": 1517,
      "ല": 1518,
      "ള": 1519,
      "വ": 1520,
      "ശ": 1521,
      "ഷ": 1522,
      "സ": 1523,
      "ഹ": 1524,
      "ാ": 1525,
      "ി": 1526,
      "ീ": 1527,
      "ു": 1528,
      "ൂ": 1529,
      "േ": 1530,
      "ോ": 1531,
      "്": 1532,
      "ൻ": 1533,
      "ං": 1534,
      "ඃ": 1535,
      "අ": 1536,
      "ආ": 1537,
      "උ": 1538,
      "එ": 1539,
      "ක": 1540,
      "ග": 1541,
      "ජ": 1542,
      "ට": 1543,
      "ඩ": 1544,
      "ණ": 1545,
      "ත": 1546,
      "ථ": 1547,
      "ද": 1548,
      "ධ": 1549,
      "න": 1550,
      "ප": 1551,
      "බ": 1552,
      "ම": 1553,
      "ය": 1554,
      "ර": 1555,
      "ල": 1556,
      "ව": 1557,
      "ශ": 1558,
      "ස": 1559,
      "හ": 1560,
      "ළ": 1561,
      "්": 1562,
      "ා": 1563,
      "ැ": 1564,
      "ි": 1565,
      "ී": 1566,
      "ු": 1567,
      "ෙ": 1568,
      "ේ": 1569,
      "ො": 1570,
      "ෝ": 1571,
      "ก": 1572,
      "ข": 1573,
      "ค": 1574,
      "ง": 1575,
      "จ": 1576,
      "ฉ": 1577,
      "ช": 1578,
      "ซ": 1579,
      "ญ": 1580,
      "ฎ": 1581,
      "ฏ": 1582,
      "ฐ": 1583,
      "ฑ": 1584,
      "ฒ": 1585,
      "ณ": 1586,
      "ด": 1587,
      "ต": 1588,
      "ถ": 1589,
      "ท": 1590,
      "ธ": 1591,
      "น": 1592,
      "บ": 1593,
      "ป": 1594,
      "ผ": 1595,
      "ฝ": 1596,
      "พ": 1597,
      "ฟ": 1598,
      "ภ": 1599,
      "ม": 1600,
      "ย": 1601,
      "ร": 1602,
      "ฤ": 1603,
      "ล": 1604,
      "ว": 1605,
      "ศ": 1606,
      "ษ": 1607,
      "ส": 1608,
      "ห": 1609,
      "ฬ": 1610,
      "อ": 1611,
      "ฮ": 1612,
      "ะ": 1613,
      "ั": 1614,
      "า": 1615,
      "ิ": 1616,
      "ี": 1617,
      "ึ": 1618,
      "ื": 1619,
      "ุ": 1620,
      "ู": 1621,
      "฿": 1622,
      "เ": 1623,
      "แ": 1624,
      "โ": 1625,
      "ใ": 1626,
      "ไ": 1627,
      "็": 1628,
      "่": 1629,
      "้": 1630,
      "๊": 1631,
      "์": 1632,
      "ํ": 1633,
      "๏": 1634,
      "๐": 1635,
      "๑": 1636,
      "๘": 1637,
      "๙": 1638,
      "ກ": 1639,
      "ຂ": 1640,
      "ຄ": 1641,
      "ງ": 1642,
      "ຈ": 1643,
      "ຊ": 1644,
      "ຍ": 1645,
      "ດ": 1646,
      "ຕ": 1647,
      "ຖ": 1648,
      "ທ": 1649,
      "ນ": 1650,
      "ບ": 1651,
      "ປ": 1652,
      "ຜ": 1653,
      "ຝ": 1654,
      "ພ": 1655,
      "ມ": 1656,
      "ຢ": 1657,
      "ຣ": 1658,
      "ລ": 1659,
      "ວ": 1660,
      "ສ": 1661,
      "ຫ": 1662,
      "ອ": 1663,
      "ຮ": 1664,
      "ະ": 1665,
      "ັ": 1666,
      "າ": 1667,
      "ິ": 1668,
      "ີ": 1669,
      "ຶ": 1670,
      "ື": 1671,
      "ຸ": 1672,
      "ູ": 1673,
      "ົ": 1674,
      "ຼ": 1675,
      "ຽ": 1676,
      "ເ": 1677,
      "ແ": 1678,
      "ໂ": 1679,
      "ໃ": 1680,
      "ໄ": 1681,
      "ໆ": 1682,
      "່": 1683,
      "້": 1684,
      "ໍ": 1685,
      "་": 1686,
      "།": 1687,
      "ཀ": 1688,
      "ཁ": 1689,
      "ག": 1690,
      "ང": 1691,
      "ཅ": 1692,
      "ཆ": 1693,
      "ཇ": 1694,
      "ཉ": 1695,
      "ཏ": 1696,
      "ཐ": 1697,
      "ད": 1698,
      "ན": 1699,
      "པ": 1700,
      "ཕ": 1701,
      "བ": 1702,
      "མ": 1703,
      "ཙ": 1704,
      "ཚ": 1705,
      "ཞ": 1706,
      "ཟ": 1707,
      "འ": 1708,
      "ཡ": 1709,
      "ར": 1710,
      "ལ": 1711,
      "ཤ": 1712,
      "ས": 1713,
      "ཧ": 1714,
      "ཨ": 1715,
      "ཱ": 1716,
      "ི": 1717,
      "ུ": 1718,
      "ེ": 1719,
      "ོ": 1720,
      "ྐ": 1721,
      "ྒ": 1722,
      "ྔ": 1723,
      "ྗ": 1724,
      "ྙ": 1725,
      "ྟ": 1726,
      "ྡ": 1727,
      "ྣ": 1728,
      "ྤ": 1729,
      "ྦ": 1730,
      "ྨ": 1731,
      "ྩ": 1732,
      "ྫ": 1733,
      "ྭ": 1734,
      "ྱ": 1735,
      "ྲ": 1736,
      "ླ": 1737,
      "ྷ": 1738,
      "က": 1739,
      "ခ": 1740,
      "ဂ": 1741,
      "ဃ": 1742,
      "င": 1743,
      "စ": 1744,
      "ဆ": 1745,
      "ဇ": 1746,
      "ဉ": 1747,
      "ည": 1748,
      "ဋ": 1749,
      "ဍ": 1750,
      "ဏ": 1751,
      "တ": 1752,
      "ထ": 1753,
      "ဒ": 1754,
      "ဓ": 1755,
      "န": 1756,
      "ပ": 1757,
      "ဗ": 1758,
      "ဘ": 1759,
      "မ": 1760,
      "ယ": 1761,
      "ရ": 1762,
      "လ": 1763,
      "ဝ": 1764,
      "သ": 1765,
      "ဟ": 1766,
      "ဠ": 1767,
      "အ": 1768,
      "ါ": 1769,
      "ာ": 1770,
      "ိ": 1771,
      "ီ": 1772,
      "ု": 1773,
      "ူ": 1774,
      "ေ": 1775,
      "ဳ": 1776,
      "ံ": 1777,
      "့": 1778,
      "း": 1779,
      "္": 1780,
      "်": 1781,
      "ျ": 1782,
      "ြ": 1783,
      "ွ": 1784,
      "ှ": 1785,
      "၁": 1786,
      "၂": 1787,
      "၃": 1788,
      "၆": 1789,
      "၊": 1790,
      "။": 1791,
      "၌": 1792,
      "၏": 1793,
      "ၢ": 1794,
      "ၰ": 1795,
      "ၲ": 1796,
      "ၳ": 1797,
      "ၼ": 1798,
      "ၾ": 1799,
      "ႆ": 1800,
      "ႏ": 1801,
      "႒": 1802,
      "ა": 1803,
      "ბ": 1804,
      "გ": 1805,
      "დ": 1806,
      "ე": 1807,
      "ვ": 1808,
      "ზ": 1809,
      "თ": 1810,
      "ი": 1811,
      "კ": 1812,
      "ლ": 1813,
      "მ": 1814,
      "ნ": 1815,
      "ო": 1816,
      "პ": 1817,
      "რ": 1818,
      "ს": 1819,
      "ტ": 1820,
      "უ": 1821,
      "ფ": 1822,
      "ქ": 1823,
      "ღ": 1824,
      "ყ": 1825,
      "შ": 1826,
      "ჩ": 1827,
      "ც": 1828,
      "ძ": 1829,
      "წ": 1830,
      "ჭ": 1831,
      "ხ": 1832,
      "ჯ": 1833,
      "ჰ": 1834,
      "ჲ": 1835,
      "ჳ": 1836,
      "ჴ": 1837,
      "ᄀ": 1838,
      "ᄁ": 1839,
      "ᄂ": 1840,
      "ᄃ": 1841,
      "ᄄ": 1842,
      "ᄅ": 1843,
      "ᄆ": 1844,
      "ᄇ": 1845,
      "ᄈ": 1846,
      "ᄉ": 1847,
      "ᄊ": 1848,
      "ᄋ": 1849,
      "ᄌ": 1850,
      "ᄍ": 1851,
      "ᄎ": 1852,
      "ᄏ": 1853,
      "ᄐ": 1854,
      "ᄑ": 1855,
      "ᄒ": 1856,
      "ᅌ": 1857,
      "ᅙ": 1858,
      "ᅟ": 1859,
      "ᅡ": 1860,
      "ᅢ": 1861,
      "ᅣ": 1862,
      "ᅤ": 1863,
      "ᅥ": 1864,
      "ᅦ": 1865,
      "ᅧ": 1866,
      "ᅨ": 1867,
      "ᅩ": 1868,
      "ᅪ": 1869,
      "ᅫ": 1870,
      "ᅬ": 1871,
      "ᅭ": 1872,
      "ᅮ": 1873,
      "ᅯ": 1874,
      "ᅰ": 1875,
      "ᅱ": 1876,
      "ᅲ": 1877,
      "ᅳ": 1878,
      "ᅴ": 1879,
      "ᅵ": 1880,
      "ᆫ": 1881,
      "ህ": 1882,
      "ሆ": 1883,
      "ላ": 1884,
      "ል": 1885,
      "ሐ": 1886,
      "መ": 1887,
      "ማ": 1888,
      "ም": 1889,
      "ሞ": 1890,
      "ሠ": 1891,
      "ሥ": 1892,
      "ራ": 1893,
      "ሬ": 1894,
      "ር": 1895,
      "ሮ": 1896,
      "ሰ": 1897,
      "ሳ": 1898,
      "ሴ": 1899,
      "ስ": 1900,
      "ሹ": 1901,
      "ሻ": 1902,
      "ሽ": 1903,
      "ቆ": 1904,
      "በ": 1905,
      "ባ": 1906,
      "ብ": 1907,
      "ታ": 1908,
      "ት": 1909,
      "ነ": 1910,
      "ኒ": 1911,
      "ን": 1912,
      "ኖ": 1913,
      "አ": 1914,
      "ኣ": 1915,
      "ኤ": 1916,
      "እ": 1917,
      "ክ": 1918,
      "ኮ": 1919,
      "ኳ": 1920,
      "ኵ": 1921,
      "ኾ": 1922,
      "ዊ": 1923,
      "ዋ": 1924,
      "ዕ": 1925,
      "ዘ": 1926,
      "ዛ": 1927,
      "ዝ": 1928,
      "ዞ": 1929,
      "የ": 1930,
      "ያ": 1931,
      "ይ": 1932,
      "ዮ": 1933,
      "ደ": 1934,
      "ዳ": 1935,
      "ድ": 1936,
      "ጀ": 1937,
      "ጃ": 1938,
      "ገ": 1939,
      "ጉ": 1940,
      "ግ": 1941,
      "ጎ": 1942,
      "ጣ": 1943,
      "ጸ": 1944,
      "ጽ": 1945,
      "ፈ": 1946,
      "ፌ": 1947,
      "ፍ": 1948,
      "ፒ": 1949,
      "Ꭰ": 1950,
      "Ꭲ": 1951,
      "Ꭶ": 1952,
      "Ꭹ": 1953,
      "Ꭽ": 1954,
      "Ꭿ": 1955,
      "Ꮀ": 1956,
      "Ꮃ": 1957,
      "Ꮅ": 1958,
      "Ꮒ": 1959,
      "Ꮓ": 1960,
      "Ꮝ": 1961,
      "Ꮞ": 1962,
      "Ꮩ": 1963,
      "Ꮰ": 1964,
      "Ꮳ": 1965,
      "Ꮶ": 1966,
      "Ꮻ": 1967,
      "Ꮿ": 1968,
      "Ᏼ": 1969,
      "ᐃ": 1970,
      "ᐄ": 1971,
      "ᐅ": 1972,
      "ᐆ": 1973,
      "ᐊ": 1974,
      "ᐋ": 1975,
      "ᐎ": 1976,
      "ᐏ": 1977,
      "ᐐ": 1978,
      "ᐠ": 1979,
      "ᐡ": 1980,
      "ᐢ": 1981,
      "ᐣ": 1982,
      "ᐤ": 1983,
      "ᐦ": 1984,
      "ᐯ": 1985,
      "ᐲ": 1986,
      "ᐸ": 1987,
      "ᐹ": 1988,
      "ᑌ": 1989,
      "ᑎ": 1990,
      "ᑐ": 1991,
      "ᑕ": 1992,
      "ᑖ": 1993,
      "ᑦ": 1994,
      "ᑫ": 1995,
      "ᑭ": 1996,
      "ᑯ": 1997,
      "ᑰ": 1998,
      "ᑲ": 1999,
      "ᑳ": 2000,
      "ᑴ": 2001,
      "ᑵ": 2002,
      "ᑶ": 2003,
      "ᑾ": 2004,
      "ᑿ": 2005,
      "ᒃ": 2006,
      "ᒄ": 2007,
      "ᒉ": 2008,
      "ᒋ": 2009,
      "ᒌ": 2010,
      "ᒑ": 2011,
      "ᒣ": 2012,
      "ᒥ": 2013,
      "ᒧ": 2014,
      "ᒨ": 2015,
      "ᒪ": 2016,
      "ᒫ": 2017,
      "ᒻ": 2018,
      "ᒼ": 2019,
      "ᓂ": 2020,
      "ᓄ": 2021,
      "ᓅ": 2022,
      "ᓇ": 2023,
      "ᓈ": 2024,
      "ᓐ": 2025,
      "ᓕ": 2026,
      "ᓚ": 2027,
      "ᓪ": 2028,
      "ᓭ": 2029,
      "ᓯ": 2030,
      "ᓰ": 2031,
      "ᓱ": 2032,
      "ᓲ": 2033,
      "ᓴ": 2034,
      "ᔁ": 2035,
      "ᔅ": 2036,
      "ᔐ": 2037,
      "ᔒ": 2038,
      "ᔔ": 2039,
      "ᔥ": 2040,
      "ᔪ": 2041,
      "ᔮ": 2042,
      "ᕀ": 2043,
      "ᕈ": 2044,
      "ᕐ": 2045,
      "ᖃ": 2046,
      "ᖅ": 2047,
      "ᗡ": 2048,
      "ᗢ": 2049,
      "ᚃ": 2050,
      "ᚄ": 2051,
      "ᚅ": 2052,
      "ᚇ": 2053,
      "ᚈ": 2054,
      "ᚉ": 2055,
      "ᚊ": 2056,
      "ᚋ": 2057,
      "ᚏ": 2058,
      "ᚐ": 2059,
      "ᚒ": 2060,
      "ᚓ": 2061,
      "ᚔ": 2062,
      "᚛": 2063,
      "᚜": 2064,
      "ᚢ": 2065,
      "ᚱ": 2066,
      "ᚴ": 2067,
      "ᚸ": 2068,
      "ᚹ": 2069,
      "ᚾ": 2070,
      "ᛁ": 2071,
      "ᛃ": 2072,
      "ᛄ": 2073,
      "ᛅ": 2074,
      "ᛋ": 2075,
      "ᛏ": 2076,
      "ᛒ": 2077,
      "ᛘ": 2078,
      "ᛡ": 2079,
      "ᛢ": 2080,
      "ᛣ": 2081,
      "ᛥ": 2082,
      "ᛦ": 2083,
      "᛬": 2084,
      "ᜆ": 2085,
      "ᜈ": 2086,
      "ᜊ": 2087,
      "ᜐ": 2088,
      "ᜒ": 2089,
      "᜔": 2090,
      "ក": 2091,
      "ខ": 2092,
      "គ": 2093,
      "ង": 2094,
      "ច": 2095,
      "ជ": 2096,
      "ញ": 2097,
      "ដ": 2098,
      "ណ": 2099,
      "ត": 2100,
      "ថ": 2101,
      "ទ": 2102,
      "ធ": 2103,
      "ន": 2104,
      "ប": 2105,
      "ផ": 2106,
      "ព": 2107,
      "ភ": 2108,
      "ម": 2109,
      "យ": 2110,
      "រ": 2111,
      "ល": 2112,
      "វ": 2113,
      "ស": 2114,
      "ហ": 2115,
      "ឡ": 2116,
      "អ": 2117,
      "ឥ": 2118,
      "ា": 2119,
      "ិ": 2120,
      "ី": 2121,
      "ឹ": 2122,
      "ឺ": 2123,
      "ុ": 2124,
      "ូ": 2125,
      "ួ": 2126,
      "ើ": 2127,
      "េ": 2128,
      "ែ": 2129,
      "ោ": 2130,
      "ៅ": 2131,
      "ំ": 2132,
      "ះ": 2133,
      "៉": 2134,
      "៊": 2135,
      "់": 2136,
      "័": 2137,
      "្": 2138,
      "᠊": 2139,
      "᠋": 2140,
      "ᠠ": 2141,
      "ᠡ": 2142,
      "ᠢ": 2143,
      "ᠣ": 2144,
      "ᠤ": 2145,
      "ᠥ": 2146,
      "ᠦ": 2147,
      "ᠨ": 2148,
      "ᠪ": 2149,
      "ᠬ": 2150,
      "ᠭ": 2151,
      "ᠮ": 2152,
      "ᠯ": 2153,
      "ᠰ": 2154,
      "ᠳ": 2155,
      "ᠵ": 2156,
      "ᠷ": 2157,
      "ᠼ": 2158,
      "ᡥ": 2159,
      "ᡳ": 2160,
      "ᡶ": 2161,
      "ᥒ": 2162,
      "ᥛ": 2163,
      "ᥝ": 2164,
      "ᥣ": 2165,
      "ᥫ": 2166,
      "ᥰ": 2167,
      "ᨣ": 2168,
      "ᨦ": 2169,
      "ᨾ": 2170,
      "ᩤ": 2171,
      "ᩥ": 2172,
      "ᩬ": 2173,
      "ᩮ": 2174,
      "ᩴ": 2175,
      "ᴀ": 2176,
      "ᴃ": 2177,
      "ᴄ": 2178,
      "ᴅ": 2179,
      "ᴇ": 2180,
      "ᴍ": 2181,
      "ᴏ": 2182,
      "ᴓ": 2183,
      "ᴘ": 2184,
      "ᴚ": 2185,
      "ᴛ": 2186,
      "ᴜ": 2187,
      "ᴠ": 2188,
      "ᴢ": 2189,
      "ᶅ": 2190,
      "ᶇ": 2191,
      "ᶊ": 2192,
      "᷆": 2193,
      "᷇": 2194,
      "᷍": 2195,
      "Ḁ": 2196,
      "ḁ": 2197,
      "Ḃ": 2198,
      "ḅ": 2199,
      "ḇ": 2200,
      "Ḋ": 2201,
      "ḋ": 2202,
      "Ḍ": 2203,
      "ḍ": 2204,
      "Ḏ": 2205,
      "ḏ": 2206,
      "Ḕ": 2207,
      "ḕ": 2208,
      "ḗ": 2209,
      "ḝ": 2210,
      "Ḟ": 2211,
      "Ḡ": 2212,
      "ḡ": 2213,
      "Ḣ": 2214,
      "ḣ": 2215,
      "Ḥ": 2216,
      "ḥ": 2217,
      "Ḩ": 2218,
      "ḩ": 2219,
      "Ḫ": 2220,
      "ḫ": 2221,
      "ḭ": 2222,
      "Ḱ": 2223,
      "ḱ": 2224,
      "Ḳ": 2225,
      "ḳ": 2226,
      "Ḵ": 2227,
      "ḵ": 2228,
      "Ḷ": 2229,
      "ḷ": 2230,
      "ḹ": 2231,
      "ḻ": 2232,
      "ḽ": 2233,
      "Ṁ": 2234,
      "ṁ": 2235,
      "Ṃ": 2236,
      "ṃ": 2237,
      "Ṅ": 2238,
      "ṅ": 2239,
      "Ṇ": 2240,
      "ṇ": 2241,
      "ṉ": 2242,
      "ṑ": 2243,
      "ṓ": 2244,
      "Ṗ": 2245,
      "ṗ": 2246,
      "Ṙ": 2247,
      "ṙ": 2248,
      "Ṛ": 2249,
      "ṛ": 2250,
      "ṝ": 2251,
      "ṟ": 2252,
      "Ṡ": 2253,
      "ṡ": 2254,
      "Ṣ": 2255,
      "ṣ": 2256,
      "Ṥ": 2257,
      "ṥ": 2258,
      "Ṧ": 2259,
      "ṧ": 2260,
      "Ṩ": 2261,
      "ṩ": 2262,
      "Ṫ": 2263,
      "ṫ": 2264,
      "Ṭ": 2265,
      "ṭ": 2266,
      "Ṯ": 2267,
      "ṯ": 2268,
      "ṳ": 2269,
      "ṻ": 2270,
      "ṽ": 2271,
      "Ẁ": 2272,
      "Ẋ": 2273,
      "ẋ": 2274,
      "Ẏ": 2275,
      "ẏ": 2276,
      "ẑ": 2277,
      "Ẓ": 2278,
      "ẓ": 2279,
      "Ẕ": 2280,
      "ẖ": 2281,
      "ẞ": 2282,
      "Ạ": 2283,
      "ạ": 2284,
      "ả": 2285,
      "Ấ": 2286,
      "ấ": 2287,
      "Ầ": 2288,
      "ầ": 2289,
      "Ẩ": 2290,
      "ẩ": 2291,
      "ẫ": 2292,
      "ậ": 2293,
      "ắ": 2294,
      "ằ": 2295,
      "ẳ": 2296,
      "ẵ": 2297,
      "ặ": 2298,
      "Ẹ": 2299,
      "ẹ": 2300,
      "ẻ": 2301,
      "Ẽ": 2302,
      "ẽ": 2303,
      "Ế": 2304,
      "ế": 2305,
      "Ề": 2306,
      "ề": 2307,
      "ể": 2308,
      "ễ": 2309,
      "Ệ": 2310,
      "ệ": 2311,
      "ỉ": 2312,
      "Ị": 2313,
      "ị": 2314,
      "Ọ": 2315,
      "ọ": 2316,
      "ỏ": 2317,
      "ố": 2318,
      "Ồ": 2319,
      "ồ": 2320,
      "ổ": 2321,
      "Ỗ": 2322,
      "ỗ": 2323,
      "Ộ": 2324,
      "ộ": 2325,
      "ớ": 2326,
      "ờ": 2327,
      "Ở": 2328,
      "ở": 2329,
      "ỡ": 2330,
      "Ợ": 2331,
      "ợ": 2332,
      "Ụ": 2333,
      "ụ": 2334,
      "Ủ": 2335,
      "ủ": 2336,
      "Ứ": 2337,
      "ứ": 2338,
      "ừ": 2339,
      "ử": 2340,
      "ữ": 2341,
      "ự": 2342,
      "ỳ": 2343,
      "ỷ": 2344,
      "Ỹ": 2345,
      "ỹ": 2346,
      "ἀ": 2347,
      "ἁ": 2348,
      "ἂ": 2349,
      "ἃ": 2350,
      "ἄ": 2351,
      "ἅ": 2352,
      "ἆ": 2353,
      "ἇ": 2354,
      "Ἀ": 2355,
      "Ἁ": 2356,
      "Ἂ": 2357,
      "Ἄ": 2358,
      "Ἅ": 2359,
      "Ἆ": 2360,
      "ἐ": 2361,
      "ἑ": 2362,
      "ἒ": 2363,
      "ἓ": 2364,
      "ἔ": 2365,
      "ἕ": 2366,
      "Ἐ": 2367,
      "Ἑ": 2368,
      "Ἓ": 2369,
      "Ἔ": 2370,
      "Ἕ": 2371,
      "ἠ": 2372,
      "ἡ": 2373,
      "ἢ": 2374,
      "ἣ": 2375,
      "ἤ": 2376,
      "ἥ": 2377,
      "ἦ": 2378,
      "ἧ": 2379,
      "Ἠ": 2380,
      "Ἡ": 2381,
      "Ἤ": 2382,
      "Ἥ": 2383,
      "Ἦ": 2384,
      "ἰ": 2385,
      "ἱ": 2386,
      "ἲ": 2387,
      "ἳ": 2388,
      "ἴ": 2389,
      "ἵ": 2390,
      "ἶ": 2391,
      "ἷ": 2392,
      "Ἰ": 2393,
      "Ἱ": 2394,
      "Ἴ": 2395,
      "Ἵ": 2396,
      "Ἶ": 2397,
      "ὀ": 2398,
      "ὁ": 2399,
      "ὂ": 2400,
      "ὃ": 2401,
      "ὄ": 2402,
      "ὅ": 2403,
      "Ὀ": 2404,
      "Ὁ": 2405,
      "Ὄ": 2406,
      "Ὅ": 2407,
      "ὐ": 2408,
      "ὑ": 2409,
      "ὒ": 2410,
      "ὓ": 2411,
      "ὔ": 2412,
      "ὕ": 2413,
      "ὖ": 2414,
      "ὗ": 2415,
      "Ὑ": 2416,
      "Ὓ": 2417,
      "Ὕ": 2418,
      "ὠ": 2419,
      "ὡ": 2420,
      "ὢ": 2421,
      "ὣ": 2422,
      "ὤ": 2423,
      "ὥ": 2424,
      "ὦ": 2425,
      "ὧ": 2426,
      "Ὠ": 2427,
      "Ὡ": 2428,
      "Ὤ": 2429,
      "ὰ": 2430,
      "ὲ": 2431,
      "ὴ": 2432,
      "ὶ": 2433,
      "ὸ": 2434,
      "ὺ": 2435,
      "ὼ": 2436,
      "ᾅ": 2437,
      "ᾉ": 2438,
      "ᾐ": 2439,
      "ᾑ": 2440,
      "ᾒ": 2441,
      "ᾓ": 2442,
      "ᾔ": 2443,
      "ᾕ": 2444,
      "ᾖ": 2445,
      "ᾗ": 2446,
      "ᾠ": 2447,
      "ᾡ": 2448,
      "ᾤ": 2449,
      "ᾧ": 2450,
      "ᾰ": 2451,
      "ᾱ": 2452,
      "ᾳ": 2453,
      "ᾴ": 2454,
      "ᾶ": 2455,
      "ᾷ": 2456,
      "Ᾱ": 2457,
      "ῂ": 2458,
      "ῃ": 2459,
      "ῄ": 2460,
      "ῆ": 2461,
      "ῇ": 2462,
      "Ὲ": 2463,
      "ῐ": 2464,
      "ῑ": 2465,
      "ῖ": 2466,
      "Ὶ": 2467,
      "ῠ": 2468,
      "ῡ": 2469,
      "ῤ": 2470,
      "ῥ": 2471,
      "ῦ": 2472,
      "Ῥ": 2473,
      "ῳ": 2474,
      "ῴ": 2475,
      "ῶ": 2476,
      "ῷ": 2477,
      "ῼ": 2478,
      "​": 2479,
      "‌": 2480,
      "‍": 2481,
      "‎": 2482,
      "‏": 2483,
      "‐": 2484,
      "‒": 2485,
      "–": 2486,
      "—": 2487,
      "―": 2488,
      "‖": 2489,
      "‘": 2490,
      "’": 2491,
      "‚": 2492,
      "‛": 2493,
      "“": 2494,
      "”": 2495,
      "„": 2496,
      "‟": 2497,
      "†": 2498,
      "‡": 2499,
      "•": 2500,
      "‣": 2501,
      "‧": 2502,
      "‪": 2503,
      "‫": 2504,
      "‬": 2505,
      "‭": 2506,
      "‰": 2507,
      "′": 2508,
      "‹": 2509,
      "›": 2510,
      "※": 2511,
      "‽": 2512,
      "‿": 2513,
      "⁂": 2514,
      "⁄": 2515,
      "⁎": 2516,
      "⁕": 2517,
      "⁙": 2518,
      "⁝": 2519,
      "⁡": 2520,
      "⁢": 2521,
      "⁦": 2522,
      "⁩": 2523,
      "₏": 2524,
      "₞": 2525,
      "₠": 2526,
      "₤": 2527,
      "₦": 2528,
      "₧": 2529,
      "₩": 2530,
      "₪": 2531,
      "€": 2532,
      "₯": 2533,
      "₱": 2534,
      "₳": 2535,
      "₴": 2536,
      "₶": 2537,
      "₹": 2538,
      "₽": 2539,
      "⃑": 2540,
      "⃒": 2541,
      "⃗": 2542,
      "⃣": 2543,
      "⃰": 2544,
      "℗": 2545,
      "℘": 2546,
      "℞": 2547,
      "℟": 2548,
      "℣": 2549,
      "℥": 2550,
      "Ↄ": 2551,
      "←": 2552,
      "↑": 2553,
      "→": 2554,
      "↓": 2555,
      "↔": 2556,
      "↕": 2557,
      "↖": 2558,
      "↗": 2559,
      "↘": 2560,
      "↙": 2561,
      "↠": 2562,
      "↦": 2563,
      "↧": 2564,
      "↩": 2565,
      "↪": 2566,
      "↬": 2567,
      "↱": 2568,
      "↵": 2569,
      "↻": 2570,
      "↾": 2571,
      "⇀": 2572,
      "⇄": 2573,
      "⇆": 2574,
      "⇌": 2575,
      "⇏": 2576,
      "⇐": 2577,
      "⇑": 2578,
      "⇒": 2579,
      "⇓": 2580,
      "⇔": 2581,
      "⇛": 2582,
      "⇝": 2583,
      "⇦": 2584,
      "∀": 2585,
      "∂": 2586,
      "∃": 2587,
      "∄": 2588,
      "∅": 2589,
      "∆": 2590,
      "∇": 2591,
      "∈": 2592,
      "∉": 2593,
      "∊": 2594,
      "∋": 2595,
      "∎": 2596,
      "∏": 2597,
      "∐": 2598,
      "∑": 2599,
      "−": 2600,
      "∓": 2601,
      "∕": 2602,
      "∖": 2603,
      "∗": 2604,
      "∘": 2605,
      "∙": 2606,
      "√": 2607,
      "∛": 2608,
      "∝": 2609,
      "∞": 2610,
      "∟": 2611,
      "∠": 2612,
      "∢": 2613,
      "∣": 2614,
      "∤": 2615,
      "∥": 2616,
      "∧": 2617,
      "∨": 2618,
      "∩": 2619,
      "∪": 2620,
      "∫": 2621,
      "∮": 2622,
      "∴": 2623,
      "∵": 2624,
      "∶": 2625,
      "∷": 2626,
      "∼": 2627,
      "∿": 2628,
      "≀": 2629,
      "≃": 2630,
      "≅": 2631,
      "≆": 2632,
      "≇": 2633,
      "≈": 2634,
      "≊": 2635,
      "≍": 2636,
      "≔": 2637,
      "≙": 2638,
      "≜": 2639,
      "≠": 2640,
      "≡": 2641,
      "≢": 2642,
      "≣": 2643,
      "≤": 2644,
      "≥": 2645,
      "≦": 2646,
      "≧": 2647,
      "≪": 2648,
      "≫": 2649,
      "≰": 2650,
      "≲": 2651,
      "≳": 2652,
      "≷": 2653,
      "≺": 2654,
      "≻": 2655,
      "≼": 2656,
      "≽": 2657,
      "≾": 2658,
      "≿": 2659,
      "⊂": 2660,
      "⊃": 2661,
      "⊄": 2662,
      "⊆": 2663,
      "⊇": 2664,
      "⊈": 2665,
      "⊉": 2666,
      "⊊": 2667,
      "⊔": 2668,
      "⊕": 2669,
      "⊖": 2670,
      "⊗": 2671,
      "⊙": 2672,
      "⊞": 2673,
      "⊠": 2674,
      "⊢": 2675,
      "⊣": 2676,
      "⊤": 2677,
      "⊥": 2678,
      "⊦": 2679,
      "⊨": 2680,
      "⊩": 2681,
      "⊬": 2682,
      "⊭": 2683,
      "⊱": 2684,
      "⊲": 2685,
      "⊺": 2686,
      "⋀": 2687,
      "⋁": 2688,
      "⋂": 2689,
      "⋃": 2690,
      "⋄": 2691,
      "⋅": 2692,
      "⋆": 2693,
      "⋈": 2694,
      "⋉": 2695,
      "⋊": 2696,
      "⋘": 2697,
      "⋜": 2698,
      "⋮": 2699,
      "⋯": 2700,
      "⋱": 2701,
      "⌀": 2702,
      "⌂": 2703,
      "⌃": 2704,
      "⌈": 2705,
      "⌉": 2706,
      "⌊": 2707,
      "⌋": 2708,
      "⌎": 2709,
      "⌘": 2710,
      "⌚": 2711,
      "⌝": 2712,
      "⌢": 2713,
      "⌣": 2714,
      "⌥": 2715,
      "⌰": 2716,
      "⌵": 2717,
      "⌿": 2718,
      "⍈": 2719,
      "⍉": 2720,
      "⍝": 2721,
      "⍯": 2722,
      "⍳": 2723,
      "⍴": 2724,
      "⍵": 2725,
      "⍸": 2726,
      "⎊": 2727,
      "⎕": 2728,
      "⎛": 2729,
      "⎜": 2730,
      "⎝": 2731,
      "⎞": 2732,
      "⎟": 2733,
      "⎠": 2734,
      "⎡": 2735,
      "⎢": 2736,
      "⎣": 2737,
      "⎤": 2738,
      "⎥": 2739,
      "⎦": 2740,
      "⎧": 2741,
      "⎨": 2742,
      "⎩": 2743,
      "⎪": 2744,
      "⎫": 2745,
      "⎬": 2746,
      "⎭": 2747,
      "⎯": 2748,
      "⎵": 2749,
      "⎶": 2750,
      "⎸": 2751,
      "⎹": 2752,
      "⎺": 2753,
      "⎻": 2754,
      "⎼": 2755,
      "⏏": 2756,
      "⏚": 2757,
      "⏟": 2758,
      "⏠": 2759,
      "⏩": 2760,
      "⏪": 2761,
      "⏭": 2762,
      "⏰": 2763,
      "⏱": 2764,
      "⏳": 2765,
      "␣": 2766,
      "─": 2767,
      "│": 2768,
      "┌": 2769,
      "┐": 2770,
      "└": 2771,
      "┘": 2772,
      "├": 2773,
      "┤": 2774,
      "┬": 2775,
      "┴": 2776,
      "┼": 2777,
      "═": 2778,
      "║": 2779,
      "╔": 2780,
      "╗": 2781,
      "╚": 2782,
      "╝": 2783,
      "╠": 2784,
      "╣": 2785,
      "╦": 2786,
      "╧": 2787,
      "╩": 2788,
      "╪": 2789,
      "╱": 2790,
      "╳": 2791,
      "▀": 2792,
      "▄": 2793,
      "█": 2794,
      "▊": 2795,
      "▌": 2796,
      "▐": 2797,
      "░": 2798,
      "▒": 2799,
      "▓": 2800,
      "■": 2801,
      "□": 2802,
      "▢": 2803,
      "▣": 2804,
      "▪": 2805,
      "▫": 2806,
      "▭": 2807,
      "▲": 2808,
      "△": 2809,
      "▴": 2810,
      "▵": 2811,
      "▶": 2812,
      "▷": 2813,
      "▸": 2814,
      "►": 2815,
      "▼": 2816,
      "▽": 2817,
      "▾": 2818,
      "◀": 2819,
      "◁": 2820,
      "◄": 2821,
      "◆": 2822,
      "◇": 2823,
      "◉": 2824,
      "◊": 2825,
      "○": 2826,
      "◌": 2827,
      "◎": 2828,
      "●": 2829,
      "◔": 2830,
      "◕": 2831,
      "◗": 2832,
      "◘": 2833,
      "◙": 2834,
      "◞": 2835,
      "◟": 2836,
      "◠": 2837,
      "◡": 2838,
      "◢": 2839,
      "◦": 2840,
      "◨": 2841,
      "◬": 2842,
      "◯": 2843,
      "◻": 2844,
      "◼": 2845,
      "◾": 2846,
      "☀": 2847,
      "☁": 2848,
      "☂": 2849,
      "☃": 2850,
      "☄": 2851,
      "★": 2852,
      "☆": 2853,
      "☇": 2854,
      "☈": 2855,
      "☉": 2856,
      "☊": 2857,
      "☋": 2858,
      "☎": 2859,
      "☐": 2860,
      "☑": 2861,
      "☒": 2862,
      "☓": 2863,
      "☕": 2864,
      "☖": 2865,
      "☗": 2866,
      "☘": 2867,
      "☜": 2868,
      "☞": 2869,
      "☠": 2870,
      "☥": 2871,
      "☧": 2872,
      "☮": 2873,
      "☯": 2874,
      "☰": 2875,
      "☲": 2876,
      "☵": 2877,
      "☷": 2878,
      "☹": 2879,
      "☺": 2880,
      "☻": 2881,
      "☼": 2882,
      "☽": 2883,
      "☾": 2884,
      "☿": 2885,
      "♀": 2886,
      "♁": 2887,
      "♂": 2888,
      "♃": 2889,
      "♄": 2890,
      "♈": 2891,
      "♊": 2892,
      "♋": 2893,
      "♌": 2894,
      "♍": 2895,
      "♎": 2896,
      "♏": 2897,
      "♐": 2898,
      "♑": 2899,
      "♒": 2900,
      "♓": 2901,
      "♛": 2902,
      "♜": 2903,
      "♞": 2904,
      "♟": 2905,
      "♠": 2906,
      "♡": 2907,
      "♢": 2908,
      "♣": 2909,
      "♤": 2910,
      "♥": 2911,
      "♦": 2912,
      "♧": 2913,
      "♩": 2914,
      "♪": 2915,
      "♫": 2916,
      "♬": 2917,
      "♭": 2918,
      "♮": 2919,
      "♯": 2920,
      "♲": 2921,
      "♳": 2922,
      "♴": 2923,
      "♵": 2924,
      "♶": 2925,
      "♷": 2926,
      "♸": 2927,
      "♹": 2928,
      "♺": 2929,
      "♻": 2930,
      "♼": 2931,
      "♽": 2932,
      "⚄": 2933,
      "⚓": 2934,
      "⚔": 2935,
      "⚖": 2936,
      "⚗": 2937,
      "⚙": 2938,
      "⚛": 2939,
      "⚜": 2940,
      "⚠": 2941,
      "⚡": 2942,
      "⚢": 2943,
      "⚪": 2944,
      "⚫": 2945,
      "⚭": 2946,
      "⚽": 2947,
      "⛅": 2948,
      "⛓": 2949,
      "⛔": 2950,
      "⛧": 2951,
      "⛩": 2952,
      "⛪": 2953,
      "⛴": 2954,
      "⛵": 2955,
      "⛷": 2956,
      "✂": 2957,
      "✄": 2958,
      "✅": 2959,
      "✈": 2960,
      "✉": 2961,
      "✊": 2962,
      "✋": 2963,
      "✌": 2964,
      "✍": 2965,
      "✎": 2966,
      "✏": 2967,
      "✓": 2968,
      "✔": 2969,
      "✕": 2970,
      "✖": 2971,
      "✗": 2972,
      "✘": 2973,
      "✝": 2974,
      "✠": 2975,
      "✡": 2976,
      "✦": 2977,
      "✧": 2978,
      "✨": 2979,
      "✩": 2980,
      "✪": 2981,
      "✫": 2982,
      "✬": 2983,
      "✭": 2984,
      "✮": 2985,
      "✯": 2986,
      "✰": 2987,
      "✲": 2988,
      "✳": 2989,
      "✴": 2990,
      "✵": 2991,
      "✶": 2992,
      "✷": 2993,
      "✸": 2994,
      "✹": 2995,
      "✺": 2996,
      "✻": 2997,
      "✼": 2998,
      "✾": 2999,
      "✿": 3000,
      "❀": 3001,
      "❁": 3002,
      "❄": 3003,
      "❌": 3004,
      "❏": 3005,
      "❑": 3006,
      "❓": 3007,
      "❖": 3008,
      "❗": 3009,
      "❘": 3010,
      "❝": 3011,
      "❞": 3012,
      "❡": 3013,
      "❣": 3014,
      "❤": 3015,
      "❥": 3016,
      "❦": 3017,
      "❧": 3018,
      "❮": 3019,
      "❯": 3020,
      "➀": 3021,
      "➁": 3022,
      "➂": 3023,
      "➃": 3024,
      "➄": 3025,
      "➅": 3026,
      "➆": 3027,
      "➇": 3028,
      "➈": 3029,
      "➉": 3030,
      "➊": 3031,
      "➋": 3032,
      "➌": 3033,
      "➍": 3034,
      "➎": 3035,
      "➏": 3036,
      "➐": 3037,
      "➑": 3038,
      "➒": 3039,
      "➓": 3040,
      "➔": 3041,
      "➕": 3042,
      "➖": 3043,
      "➗": 3044,
      "➞": 3045,
      "➠": 3046,
      "➡": 3047,
      "➢": 3048,
      "➤": 3049,
      "➲": 3050,
      "⟦": 3051,
      "⟧": 3052,
      "⟨": 3053,
      "⟩": 3054,
      "⟫": 3055,
      "⟵": 3056,
      "⟶": 3057,
      "⟷": 3058,
      "⟸": 3059,
      "⟹": 3060,
      "⟺": 3061,
      "⠀": 3062,
      "⠈": 3063,
      "⠡": 3064,
      "⠢": 3065,
      "⠩": 3066,
      "⤮": 3067,
      "⤵": 3068,
      "⦁": 3069,
      "⨁": 3070,
      "⨉": 3071,
      "⨝": 3072,
      "⨯": 3073,
      "⩽": 3074,
      "⩾": 3075,
      "⪅": 3076,
      "⪯": 3077,
      "⪰": 3078,
      "⫅": 3079,
      "⫶": 3080,
      "⬅": 3081,
      "⬆": 3082,
      "⬇": 3083,
      "⬛": 3084,
      "⬝": 3085,
      "⬤": 3086,
      "⭐": 3087,
      "⭑": 3088,
      "⭕": 3089,
      "ⱗ": 3090,
      "Ɐ": 3091,
      "Ȿ": 3092,
      "Ⲁ": 3093,
      "ⲁ": 3094,
      "ⲃ": 3095,
      "Ⲉ": 3096,
      "ⲉ": 3097,
      "Ⲏ": 3098,
      "ⲓ": 3099,
      "Ⲕ": 3100,
      "Ⲙ": 3101,
      "ⲙ": 3102,
      "Ⲛ": 3103,
      "Ⲟ": 3104,
      "Ⲡ": 3105,
      "Ⲣ": 3106,
      "ⲣ": 3107,
      "Ⲧ": 3108,
      "ⲧ": 3109,
      "Ⲩ": 3110,
      "Ⲱ": 3111,
      "ⲱ": 3112,
      "ⴰ": 3113,
      "ⴱ": 3114,
      "ⴷ": 3115,
      "ⴹ": 3116,
      "ⴻ": 3117,
      "ⴽ": 3118,
      "ⵉ": 3119,
      "ⵊ": 3120,
      "ⵍ": 3121,
      "ⵎ": 3122,
      "ⵏ": 3123,
      "ⵓ": 3124,
      "ⵔ": 3125,
      "ⵕ": 3126,
      "ⵙ": 3127,
      "ⵜ": 3128,
      "ⵟ": 3129,
      "ⵡ": 3130,
      "ⵢ": 3131,
      "ⵣ": 3132,
      "ⵥ": 3133,
      "⸀": 3134,
      "⸂": 3135,
      "⸃": 3136,
      "⸧": 3137,
      "⸫": 3138,
      "⸬": 3139,
      "⻻": 3140,
      "⿵": 3141,
      "、": 3142,
      "。": 3143,
      "〃": 3144,
      "々": 3145,
      "〈": 3146,
      "〉": 3147,
      "《": 3148,
      "》": 3149,
      "「": 3150,
      "」": 3151,
      "『": 3152,
      "』": 3153,
      "【": 3154,
      "】": 3155,
      "〒": 3156,
      "〖": 3157,
      "〗": 3158,
      "〜": 3159,
      "〯": 3160,
      "ぁ": 3161,
      "あ": 3162,
      "ぃ": 3163,
      "い": 3164,
      "う": 3165,
      "ぇ": 3166,
      "え": 3167,
      "お": 3168,
      "か": 3169,
      "が": 3170,
      "き": 3171,
      "ぎ": 3172,
      "く": 3173,
      "ぐ": 3174,
      "け": 3175,
      "げ": 3176,
      "こ": 3177,
      "ご": 3178,
      "さ": 3179,
      "ざ": 3180,
      "し": 3181,
      "じ": 3182,
      "す": 3183,
      "ず": 3184,
      "せ": 3185,
      "ぜ": 3186,
      "そ": 3187,
      "ぞ": 3188,
      "た": 3189,
      "だ": 3190,
      "ち": 3191,
      "っ": 3192,
      "つ": 3193,
      "づ": 3194,
      "て": 3195,
      "で": 3196,
      "と": 3197,
      "ど": 3198,
      "な": 3199,
      "に": 3200,
      "ぬ": 3201,
      "ね": 3202,
      "の": 3203,
      "は": 3204,
      "ば": 3205,
      "ぱ": 3206,
      "ひ": 3207,
      "び": 3208,
      "ぴ": 3209,
      "ふ": 3210,
      "ぶ": 3211,
      "へ": 3212,
      "べ": 3213,
      "ぺ": 3214,
      "ほ": 3215,
      "ぼ": 3216,
      "ぽ": 3217,
      "ま": 3218,
      "み": 3219,
      "む": 3220,
      "め": 3221,
      "も": 3222,
      "ゃ": 3223,
      "や": 3224,
      "ゅ": 3225,
      "ゆ": 3226,
      "ょ": 3227,
      "よ": 3228,
      "ら": 3229,
      "り": 3230,
      "る": 3231,
      "れ": 3232,
      "ろ": 3233,
      "ゎ": 3234,
      "わ": 3235,
      "ゐ": 3236,
      "ゑ": 3237,
      "を": 3238,
      "ん": 3239,
      "゙": 3240,
      "゚": 3241,
      "ァ": 3242,
      "ア": 3243,
      "ィ": 3244,
      "イ": 3245,
      "ゥ": 3246,
      "ウ": 3247,
      "ェ": 3248,
      "エ": 3249,
      "ォ": 3250,
      "オ": 3251,
      "カ": 3252,
      "ガ": 3253,
      "キ": 3254,
      "ギ": 3255,
      "ク": 3256,
      "グ": 3257,
      "ケ": 3258,
      "ゲ": 3259,
      "コ": 3260,
      "ゴ": 3261,
      "サ": 3262,
      "ザ": 3263,
      "シ": 3264,
      "ジ": 3265,
      "ス": 3266,
      "ズ": 3267,
      "セ": 3268,
      "ゼ": 3269,
      "ソ": 3270,
      "ゾ": 3271,
      "タ": 3272,
      "ダ": 3273,
      "チ": 3274,
      "ッ": 3275,
      "ツ": 3276,
      "ヅ": 3277,
      "テ": 3278,
      "デ": 3279,
      "ト": 3280,
      "ド": 3281,
      "ナ": 3282,
      "ニ": 3283,
      "ヌ": 3284,
      "ネ": 3285,
      "ノ": 3286,
      "ハ": 3287,
      "バ": 3288,
      "パ": 3289,
      "ヒ": 3290,
      "ビ": 3291,
      "ピ": 3292,
      "フ": 3293,
      "ブ": 3294,
      "プ": 3295,
      "ヘ": 3296,
      "ベ": 3297,
      "ペ": 3298,
      "ホ": 3299,
      "ボ": 3300,
      "ポ": 3301,
      "マ": 3302,
      "ミ": 3303,
      "ム": 3304,
      "メ": 3305,
      "モ": 3306,
      "ャ": 3307,
      "ヤ": 3308,
      "ュ": 3309,
      "ユ": 3310,
      "ョ": 3311,
      "ヨ": 3312,
      "ラ": 3313,
      "リ": 3314,
      "ル": 3315,
      "レ": 3316,
      "ロ": 3317,
      "ヮ": 3318,
      "ワ": 3319,
      "ヰ": 3320,
      "ヱ": 3321,
      "ヲ": 3322,
      "ン": 3323,
      "ヴ": 3324,
      "ヶ": 3325,
      "・": 3326,
      "ー": 3327,
      "ヽ": 3328,
      "ㄅ": 3329,
      "ㄆ": 3330,
      "ㄇ": 3331,
      "ㄈ": 3332,
      "ㄖ": 3333,
      "ㄡ": 3334,
      "ㄢ": 3335,
      "ㄣ": 3336,
      "ㄤ": 3337,
      "ㄥ": 3338,
      "ㄦ": 3339,
      "ㄧ": 3340,
      "ㄨ": 3341,
      "ㄩ": 3342,
      "ㇻ": 3343,
      "ㇼ": 3344,
      "㝐": 3345,
      "䯲": 3346,
      "一": 3347,
      "丁": 3348,
      "七": 3349,
      "丄": 3350,
      "万": 3351,
      "丈": 3352,
      "三": 3353,
      "上": 3354,
      "下": 3355,
      "不": 3356,
      "与": 3357,
      "丑": 3358,
      "专": 3359,
      "且": 3360,
      "丕": 3361,
      "世": 3362,
      "丘": 3363,
      "丙": 3364,
      "业": 3365,
      "丛": 3366,
      "东": 3367,
      "丝": 3368,
      "丞": 3369,
      "両": 3370,
      "两": 3371,
      "严": 3372,
      "並": 3373,
      "丧": 3374,
      "丨": 3375,
      "个": 3376,
      "丫": 3377,
      "中": 3378,
      "丰": 3379,
      "串": 3380,
      "临": 3381,
      "丸": 3382,
      "丹": 3383,
      "为": 3384,
      "主": 3385,
      "丽": 3386,
      "举": 3387,
      "乃": 3388,
      "久": 3389,
      "么": 3390,
      "义": 3391,
      "之": 3392,
      "乌": 3393,
      "乎": 3394,
      "乐": 3395,
      "乗": 3396,
      "乘": 3397,
      "乙": 3398,
      "九": 3399,
      "也": 3400,
      "习": 3401,
      "乡": 3402,
      "书": 3403,
      "乱": 3404,
      "乳": 3405,
      "乾": 3406,
      "亀": 3407,
      "亂": 3408,
      "了": 3409,
      "予": 3410,
      "争": 3411,
      "事": 3412,
      "二": 3413,
      "于": 3414,
      "云": 3415,
      "五": 3416,
      "井": 3417,
      "亚": 3418,
      "些": 3419,
      "亜": 3420,
      "亞": 3421,
      "亡": 3422,
      "交": 3423,
      "产": 3424,
      "亨": 3425,
      "享": 3426,
      "京": 3427,
      "亭": 3428,
      "亮": 3429,
      "亲": 3430,
      "人": 3431,
      "亿": 3432,
      "什": 3433,
      "仁": 3434,
      "仅": 3435,
      "仇": 3436,
      "今": 3437,
      "介": 3438,
      "仍": 3439,
      "从": 3440,
      "仏": 3441,
      "仔": 3442,
      "仕": 3443,
      "他": 3444,
      "付": 3445,
      "仙": 3446,
      "仟": 3447,
      "代": 3448,
      "令": 3449,
      "以": 3450,
      "仪": 3451,
      "们": 3452,
      "仮": 3453,
      "仰": 3454,
      "仲": 3455,
      "件": 3456,
      "价": 3457,
      "任": 3458,
      "份": 3459,
      "企": 3460,
      "伊": 3461,
      "伍": 3462,
      "伎": 3463,
      "伏": 3464,
      "伐": 3465,
      "休": 3466,
      "优": 3467,
      "会": 3468,
      "伝": 3469,
      "伞": 3470,
      "伟": 3471,
      "传": 3472,
      "伤": 3473,
      "伦": 3474,
      "伯": 3475,
      "伴": 3476,
      "伶": 3477,
      "似": 3478,
      "伽": 3479,
      "但": 3480,
      "佈": 3481,
      "位": 3482,
      "低": 3483,
      "住": 3484,
      "佐": 3485,
      "佑": 3486,
      "体": 3487,
      "佔": 3488,
      "何": 3489,
      "佗": 3490,
      "余": 3491,
      "佛": 3492,
      "作": 3493,
      "你": 3494,
      "佩": 3495,
      "佰": 3496,
      "佳": 3497,
      "佼": 3498,
      "使": 3499,
      "侂": 3500,
      "來": 3501,
      "例": 3502,
      "侍": 3503,
      "侏": 3504,
      "侘": 3505,
      "依": 3506,
      "侠": 3507,
      "価": 3508,
      "侧": 3509,
      "侨": 3510,
      "侯": 3511,
      "侶": 3512,
      "便": 3513,
      "係": 3514,
      "促": 3515,
      "俄": 3516,
      "俊": 3517,
      "俗": 3518,
      "保": 3519,
      "俠": 3520,
      "信": 3521,
      "修": 3522,
      "俱": 3523,
      "俵": 3524,
      "俺": 3525,
      "俾": 3526,
      "倉": 3527,
      "個": 3528,
      "倍": 3529,
      "們": 3530,
      "倒": 3531,
      "候": 3532,
      "値": 3533,
      "倫": 3534,
      "倭": 3535,
      "倶": 3536,
      "值": 3537,
      "偃": 3538,
      "假": 3539,
      "偉": 3540,
      "偏": 3541,
      "做": 3542,
      "停": 3543,
      "健": 3544,
      "側": 3545,
      "偵": 3546,
      "偶": 3547,
      "偷": 3548,
      "傅": 3549,
      "傍": 3550,
      "傑": 3551,
      "傘": 3552,
      "備": 3553,
      "储": 3554,
      "催": 3555,
      "傲": 3556,
      "傳": 3557,
      "傷": 3558,
      "傻": 3559,
      "僊": 3560,
      "働": 3561,
      "像": 3562,
      "僕": 3563,
      "僖": 3564,
      "僧": 3565,
      "價": 3566,
      "儀": 3567,
      "億": 3568,
      "儒": 3569,
      "儘": 3570,
      "儚": 3571,
      "優": 3572,
      "儿": 3573,
      "元": 3574,
      "兄": 3575,
      "充": 3576,
      "兆": 3577,
      "兇": 3578,
      "先": 3579,
      "光": 3580,
      "克": 3581,
      "免": 3582,
      "兎": 3583,
      "児": 3584,
      "兑": 3585,
      "兒": 3586,
      "兔": 3587,
      "兗": 3588,
      "党": 3589,
      "入": 3590,
      "內": 3591,
      "全": 3592,
      "兩": 3593,
      "八": 3594,
      "公": 3595,
      "六": 3596,
      "兮": 3597,
      "兰": 3598,
      "共": 3599,
      "关": 3600,
      "兴": 3601,
      "兵": 3602,
      "其": 3603,
      "具": 3604,
      "典": 3605,
      "兹": 3606,
      "兼": 3607,
      "冂": 3608,
      "内": 3609,
      "円": 3610,
      "冇": 3611,
      "冈": 3612,
      "冉": 3613,
      "冊": 3614,
      "再": 3615,
      "冒": 3616,
      "冕": 3617,
      "写": 3618,
      "军": 3619,
      "农": 3620,
      "冠": 3621,
      "冤": 3622,
      "冥": 3623,
      "冬": 3624,
      "冯": 3625,
      "冰": 3626,
      "冲": 3627,
      "决": 3628,
      "况": 3629,
      "冶": 3630,
      "净": 3631,
      "准": 3632,
      "凉": 3633,
      "凌": 3634,
      "凛": 3635,
      "凝": 3636,
      "几": 3637,
      "凡": 3638,
      "凤": 3639,
      "処": 3640,
      "凰": 3641,
      "凱": 3642,
      "凶": 3643,
      "出": 3644,
      "击": 3645,
      "函": 3646,
      "刀": 3647,
      "刃": 3648,
      "分": 3649,
      "切": 3650,
      "刈": 3651,
      "刊": 3652,
      "刑": 3653,
      "列": 3654,
      "刘": 3655,
      "则": 3656,
      "刚": 3657,
      "创": 3658,
      "初": 3659,
      "判": 3660,
      "別": 3661,
      "利": 3662,
      "刪": 3663,
      "别": 3664,
      "到": 3665,
      "制": 3666,
      "刷": 3667,
      "刹": 3668,
      "刺": 3669,
      "刻": 3670,
      "剁": 3671,
      "剂": 3672,
      "則": 3673,
      "剌": 3674,
      "前": 3675,
      "剑": 3676,
      "剔": 3677,
      "剛": 3678,
      "剣": 3679,
      "剧": 3680,
      "剩": 3681,
      "剪": 3682,
      "割": 3683,
      "創": 3684,
      "劃": 3685,
      "劇": 3686,
      "劈": 3687,
      "劉": 3688,
      "劍": 3689,
      "力": 3690,
      "办": 3691,
      "功": 3692,
      "加": 3693,
      "务": 3694,
      "动": 3695,
      "助": 3696,
      "努": 3697,
      "劫": 3698,
      "励": 3699,
      "劳": 3700,
      "势": 3701,
      "勃": 3702,
      "勅": 3703,
      "勇": 3704,
      "勋": 3705,
      "勒": 3706,
      "動": 3707,
      "務": 3708,
      "勝": 3709,
      "勞": 3710,
      "勢": 3711,
      "勤": 3712,
      "勧": 3713,
      "勵": 3714,
      "勾": 3715,
      "勿": 3716,
      "匀": 3717,
      "匂": 3718,
      "包": 3719,
      "匈": 3720,
      "化": 3721,
      "北": 3722,
      "匠": 3723,
      "匱": 3724,
      "匹": 3725,
      "区": 3726,
      "医": 3727,
      "區": 3728,
      "十": 3729,
      "千": 3730,
      "升": 3731,
      "午": 3732,
      "卉": 3733,
      "半": 3734,
      "华": 3735,
      "协": 3736,
      "卒": 3737,
      "卓": 3738,
      "協": 3739,
      "单": 3740,
      "南": 3741,
      "博": 3742,
      "卜": 3743,
      "占": 3744,
      "卡": 3745,
      "卦": 3746,
      "卧": 3747,
      "卩": 3748,
      "卫": 3749,
      "印": 3750,
      "危": 3751,
      "即": 3752,
      "卷": 3753,
      "卻": 3754,
      "卿": 3755,
      "厂": 3756,
      "厅": 3757,
      "历": 3758,
      "厌": 3759,
      "厘": 3760,
      "厚": 3761,
      "原": 3762,
      "厥": 3763,
      "厦": 3764,
      "厨": 3765,
      "厲": 3766,
      "厳": 3767,
      "去": 3768,
      "县": 3769,
      "参": 3770,
      "又": 3771,
      "叉": 3772,
      "及": 3773,
      "友": 3774,
      "双": 3775,
      "反": 3776,
      "发": 3777,
      "叔": 3778,
      "取": 3779,
      "受": 3780,
      "变": 3781,
      "叛": 3782,
      "叡": 3783,
      "叢": 3784,
      "口": 3785,
      "古": 3786,
      "句": 3787,
      "另": 3788,
      "只": 3789,
      "叫": 3790,
      "可": 3791,
      "台": 3792,
      "叱": 3793,
      "史": 3794,
      "右": 3795,
      "叶": 3796,
      "号": 3797,
      "司": 3798,
      "叹": 3799,
      "吃": 3800,
      "各": 3801,
      "合": 3802,
      "吉": 3803,
      "吋": 3804,
      "同": 3805,
      "名": 3806,
      "后": 3807,
      "吏": 3808,
      "吐": 3809,
      "向": 3810,
      "吒": 3811,
      "吓": 3812,
      "吔": 3813,
      "吗": 3814,
      "君": 3815,
      "吝": 3816,
      "吞": 3817,
      "吟": 3818,
      "否": 3819,
      "吧": 3820,
      "含": 3821,
      "听": 3822,
      "启": 3823,
      "吳": 3824,
      "吴": 3825,
      "吶": 3826,
      "吸": 3827,
      "吹": 3828,
      "吻": 3829,
      "吾": 3830,
      "呀": 3831,
      "呂": 3832,
      "呆": 3833,
      "告": 3834,
      "呐": 3835,
      "员": 3836,
      "周": 3837,
      "呪": 3838,
      "味": 3839,
      "呼": 3840,
      "命": 3841,
      "咄": 3842,
      "咆": 3843,
      "和": 3844,
      "咏": 3845,
      "咖": 3846,
      "咪": 3847,
      "咲": 3848,
      "咸": 3849,
      "哀": 3850,
      "品": 3851,
      "哇": 3852,
      "哈": 3853,
      "哉": 3854,
      "員": 3855,
      "哥": 3856,
      "哦": 3857,
      "哪": 3858,
      "哭": 3859,
      "哮": 3860,
      "哲": 3861,
      "哼": 3862,
      "唄": 3863,
      "唇": 3864,
      "唐": 3865,
      "唔": 3866,
      "唢": 3867,
      "唤": 3868,
      "唬": 3869,
      "售": 3870,
      "唯": 3871,
      "唱": 3872,
      "商": 3873,
      "啊": 3874,
      "問": 3875,
      "啓": 3876,
      "啜": 3877,
      "啟": 3878,
      "啡": 3879,
      "啦": 3880,
      "善": 3881,
      "喇": 3882,
      "喉": 3883,
      "喚": 3884,
      "喜": 3885,
      "喝": 3886,
      "喩": 3887,
      "喪": 3888,
      "喬": 3889,
      "單": 3890,
      "営": 3891,
      "喻": 3892,
      "嗚": 3893,
      "嗣": 3894,
      "嗩": 3895,
      "嘉": 3896,
      "嘱": 3897,
      "嘴": 3898,
      "器": 3899,
      "噴": 3900,
      "噶": 3901,
      "嚴": 3902,
      "囃": 3903,
      "囚": 3904,
      "四": 3905,
      "回": 3906,
      "因": 3907,
      "团": 3908,
      "団": 3909,
      "园": 3910,
      "囲": 3911,
      "図": 3912,
      "围": 3913,
      "固": 3914,
      "国": 3915,
      "图": 3916,
      "圆": 3917,
      "圈": 3918,
      "國": 3919,
      "圍": 3920,
      "圏": 3921,
      "園": 3922,
      "圓": 3923,
      "圖": 3924,
      "團": 3925,
      "圜": 3926,
      "土": 3927,
      "圣": 3928,
      "圧": 3929,
      "在": 3930,
      "圩": 3931,
      "地": 3932,
      "场": 3933,
      "圻": 3934,
      "址": 3935,
      "坂": 3936,
      "均": 3937,
      "坊": 3938,
      "坎": 3939,
      "坏": 3940,
      "坐": 3941,
      "块": 3942,
      "坚": 3943,
      "坛": 3944,
      "坞": 3945,
      "坤": 3946,
      "坵": 3947,
      "垂": 3948,
      "型": 3949,
      "垢": 3950,
      "垣": 3951,
      "埂": 3952,
      "埃": 3953,
      "埋": 3954,
      "城": 3955,
      "埔": 3956,
      "域": 3957,
      "培": 3958,
      "基": 3959,
      "埼": 3960,
      "堂": 3961,
      "堅": 3962,
      "堉": 3963,
      "堕": 3964,
      "堤": 3965,
      "堪": 3966,
      "堯": 3967,
      "報": 3968,
      "場": 3969,
      "堺": 3970,
      "塊": 3971,
      "塑": 3972,
      "塔": 3973,
      "塗": 3974,
      "塘": 3975,
      "塚": 3976,
      "塞": 3977,
      "塩": 3978,
      "填": 3979,
      "塵": 3980,
      "塾": 3981,
      "墀": 3982,
      "境": 3983,
      "墓": 3984,
      "増": 3985,
      "墙": 3986,
      "增": 3987,
      "墨": 3988,
      "墻": 3989,
      "壁": 3990,
      "壇": 3991,
      "壞": 3992,
      "士": 3993,
      "壬": 3994,
      "壮": 3995,
      "壯": 3996,
      "声": 3997,
      "壱": 3998,
      "売": 3999,
      "壺": 4000,
      "壽": 4001,
      "夂": 4002,
      "处": 4003,
      "备": 4004,
      "変": 4005,
      "复": 4006,
      "夏": 4007,
      "夕": 4008,
      "外": 4009,
      "多": 4010,
      "夜": 4011,
      "够": 4012,
      "夠": 4013,
      "夢": 4014,
      "大": 4015,
      "天": 4016,
      "太": 4017,
      "夫": 4018,
      "央": 4019,
      "失": 4020,
      "头": 4021,
      "夷": 4022,
      "夺": 4023,
      "夾": 4024,
      "奇": 4025,
      "奈": 4026,
      "奉": 4027,
      "奋": 4028,
      "奎": 4029,
      "奏": 4030,
      "奔": 4031,
      "奕": 4032,
      "套": 4033,
      "奘": 4034,
      "奚": 4035,
      "奢": 4036,
      "奥": 4037,
      "奪": 4038,
      "奮": 4039,
      "女": 4040,
      "奴": 4041,
      "她": 4042,
      "好": 4043,
      "如": 4044,
      "妃": 4045,
      "妄": 4046,
      "妈": 4047,
      "妊": 4048,
      "妖": 4049,
      "妙": 4050,
      "妮": 4051,
      "妲": 4052,
      "妳": 4053,
      "妹": 4054,
      "妻": 4055,
      "姆": 4056,
      "姉": 4057,
      "始": 4058,
      "姐": 4059,
      "姓": 4060,
      "委": 4061,
      "姚": 4062,
      "姜": 4063,
      "姫": 4064,
      "姬": 4065,
      "姿": 4066,
      "威": 4067,
      "娃": 4068,
      "娘": 4069,
      "娜": 4070,
      "娥": 4071,
      "娱": 4072,
      "娲": 4073,
      "婆": 4074,
      "婉": 4075,
      "婚": 4076,
      "婦": 4077,
      "婿": 4078,
      "媚": 4079,
      "媛": 4080,
      "媧": 4081,
      "媯": 4082,
      "媽": 4083,
      "嫁": 4084,
      "嫠": 4085,
      "嫣": 4086,
      "嫻": 4087,
      "嬌": 4088,
      "嬢": 4089,
      "嬪": 4090,
      "嬰": 4091,
      "嬴": 4092,
      "子": 4093,
      "孔": 4094,
      "字": 4095,
      "存": 4096,
      "孙": 4097,
      "孛": 4098,
      "孜": 4099,
      "孝": 4100,
      "孟": 4101,
      "季": 4102,
      "孤": 4103,
      "学": 4104,
      "孩": 4105,
      "孫": 4106,
      "學": 4107,
      "孺": 4108,
      "宁": 4109,
      "它": 4110,
      "宅": 4111,
      "宇": 4112,
      "守": 4113,
      "安": 4114,
      "宋": 4115,
      "完": 4116,
      "宏": 4117,
      "宗": 4118,
      "官": 4119,
      "宙": 4120,
      "定": 4121,
      "宛": 4122,
      "宜": 4123,
      "宝": 4124,
      "实": 4125,
      "実": 4126,
      "宠": 4127,
      "审": 4128,
      "客": 4129,
      "宣": 4130,
      "室": 4131,
      "宥": 4132,
      "宫": 4133,
      "宮": 4134,
      "宰": 4135,
      "害": 4136,
      "宴": 4137,
      "宵": 4138,
      "家": 4139,
      "容": 4140,
      "宿": 4141,
      "寂": 4142,
      "寄": 4143,
      "寅": 4144,
      "密": 4145,
      "寇": 4146,
      "富": 4147,
      "寐": 4148,
      "寒": 4149,
      "寓": 4150,
      "寛": 4151,
      "寝": 4152,
      "寞": 4153,
      "察": 4154,
      "寡": 4155,
      "實": 4156,
      "寧": 4157,
      "寨": 4158,
      "審": 4159,
      "寮": 4160,
      "寵": 4161,
      "寶": 4162,
      "寸": 4163,
      "对": 4164,
      "寺": 4165,
      "対": 4166,
      "寿": 4167,
      "封": 4168,
      "専": 4169,
      "射": 4170,
      "将": 4171,
      "將": 4172,
      "專": 4173,
      "尉": 4174,
      "尊": 4175,
      "尋": 4176,
      "對": 4177,
      "導": 4178,
      "小": 4179,
      "少": 4180,
      "尔": 4181,
      "尖": 4182,
      "尘": 4183,
      "尚": 4184,
      "尤": 4185,
      "尧": 4186,
      "就": 4187,
      "尹": 4188,
      "尺": 4189,
      "尻": 4190,
      "尼": 4191,
      "尽": 4192,
      "尾": 4193,
      "尿": 4194,
      "局": 4195,
      "屁": 4196,
      "居": 4197,
      "屆": 4198,
      "屈": 4199,
      "届": 4200,
      "屋": 4201,
      "屍": 4202,
      "屎": 4203,
      "展": 4204,
      "屜": 4205,
      "属": 4206,
      "屟": 4207,
      "層": 4208,
      "屧": 4209,
      "屬": 4210,
      "屮": 4211,
      "屯": 4212,
      "山": 4213,
      "岁": 4214,
      "岐": 4215,
      "岑": 4216,
      "岚": 4217,
      "岛": 4218,
      "岡": 4219,
      "岩": 4220,
      "岬": 4221,
      "岱": 4222,
      "岳": 4223,
      "岸": 4224,
      "峡": 4225,
      "峨": 4226,
      "峯": 4227,
      "峰": 4228,
      "島": 4229,
      "崂": 4230,
      "崇": 4231,
      "崎": 4232,
      "崔": 4233,
      "崖": 4234,
      "崛": 4235,
      "崧": 4236,
      "崩": 4237,
      "崳": 4238,
      "崿": 4239,
      "嵊": 4240,
      "嵐": 4241,
      "嵩": 4242,
      "嵯": 4243,
      "嶲": 4244,
      "嶼": 4245,
      "嶽": 4246,
      "巌": 4247,
      "巒": 4248,
      "巔": 4249,
      "巖": 4250,
      "川": 4251,
      "州": 4252,
      "巡": 4253,
      "工": 4254,
      "左": 4255,
      "巨": 4256,
      "巫": 4257,
      "己": 4258,
      "已": 4259,
      "巳": 4260,
      "巴": 4261,
      "巷": 4262,
      "巻": 4263,
      "巽": 4264,
      "巾": 4265,
      "币": 4266,
      "市": 4267,
      "布": 4268,
      "帆": 4269,
      "师": 4270,
      "希": 4271,
      "帖": 4272,
      "帛": 4273,
      "帝": 4274,
      "帥": 4275,
      "带": 4276,
      "師": 4277,
      "席": 4278,
      "帮": 4279,
      "帯": 4280,
      "帰": 4281,
      "帳": 4282,
      "帶": 4283,
      "常": 4284,
      "帽": 4285,
      "幌": 4286,
      "幕": 4287,
      "幡": 4288,
      "幣": 4289,
      "幫": 4290,
      "干": 4291,
      "平": 4292,
      "年": 4293,
      "并": 4294,
      "幸": 4295,
      "幹": 4296,
      "幻": 4297,
      "幼": 4298,
      "幽": 4299,
      "幾": 4300,
      "广": 4301,
      "庁": 4302,
      "広": 4303,
      "庄": 4304,
      "庆": 4305,
      "序": 4306,
      "库": 4307,
      "应": 4308,
      "底": 4309,
      "店": 4310,
      "庙": 4311,
      "庚": 4312,
      "府": 4313,
      "庞": 4314,
      "度": 4315,
      "座": 4316,
      "庫": 4317,
      "庭": 4318,
      "庵": 4319,
      "庶": 4320,
      "康": 4321,
      "庸": 4322,
      "廃": 4323,
      "廈": 4324,
      "廉": 4325,
      "廓": 4326,
      "廖": 4327,
      "廟": 4328,
      "廣": 4329,
      "廬": 4330,
      "廳": 4331,
      "延": 4332,
      "廷": 4333,
      "建": 4334,
      "廻": 4335,
      "廿": 4336,
      "开": 4337,
      "弁": 4338,
      "异": 4339,
      "弃": 4340,
      "弈": 4341,
      "弋": 4342,
      "式": 4343,
      "弐": 4344,
      "弓": 4345,
      "引": 4346,
      "弗": 4347,
      "弘": 4348,
      "弟": 4349,
      "张": 4350,
      "弥": 4351,
      "弦": 4352,
      "弩": 4353,
      "弯": 4354,
      "弱": 4355,
      "張": 4356,
      "強": 4357,
      "弹": 4358,
      "强": 4359,
      "弼": 4360,
      "弾": 4361,
      "彈": 4362,
      "彌": 4363,
      "彐": 4364,
      "归": 4365,
      "当": 4366,
      "录": 4367,
      "彗": 4368,
      "彝": 4369,
      "形": 4370,
      "彥": 4371,
      "彦": 4372,
      "彩": 4373,
      "彬": 4374,
      "彭": 4375,
      "彰": 4376,
      "影": 4377,
      "彳": 4378,
      "役": 4379,
      "彻": 4380,
      "彼": 4381,
      "往": 4382,
      "征": 4383,
      "径": 4384,
      "待": 4385,
      "很": 4386,
      "律": 4387,
      "後": 4388,
      "徐": 4389,
      "徑": 4390,
      "徒": 4391,
      "従": 4392,
      "得": 4393,
      "從": 4394,
      "御": 4395,
      "徧": 4396,
      "復": 4397,
      "微": 4398,
      "徳": 4399,
      "徴": 4400,
      "徵": 4401,
      "德": 4402,
      "徹": 4403,
      "心": 4404,
      "必": 4405,
      "忆": 4406,
      "忌": 4407,
      "忍": 4408,
      "志": 4409,
      "忘": 4410,
      "忙": 4411,
      "応": 4412,
      "忠": 4413,
      "忧": 4414,
      "快": 4415,
      "念": 4416,
      "忸": 4417,
      "忻": 4418,
      "忽": 4419,
      "怀": 4420,
      "怂": 4421,
      "怎": 4422,
      "怒": 4423,
      "怖": 4424,
      "怛": 4425,
      "思": 4426,
      "怡": 4427,
      "急": 4428,
      "性": 4429,
      "怨": 4430,
      "怪": 4431,
      "总": 4432,
      "恆": 4433,
      "恋": 4434,
      "恐": 4435,
      "恒": 4436,
      "恕": 4437,
      "恢": 4438,
      "恨": 4439,
      "恩": 4440,
      "恪": 4441,
      "恭": 4442,
      "息": 4443,
      "恰": 4444,
      "恵": 4445,
      "悉": 4446,
      "悔": 4447,
      "悟": 4448,
      "患": 4449,
      "悪": 4450,
      "悯": 4451,
      "悲": 4452,
      "悳": 4453,
      "悼": 4454,
      "情": 4455,
      "惊": 4456,
      "惑": 4457,
      "惕": 4458,
      "惟": 4459,
      "惠": 4460,
      "惪": 4461,
      "想": 4462,
      "惹": 4463,
      "愁": 4464,
      "愈": 4465,
      "意": 4466,
      "愕": 4467,
      "愚": 4468,
      "愛": 4469,
      "感": 4470,
      "愠": 4471,
      "愤": 4472,
      "愫": 4473,
      "愷": 4474,
      "愿": 4475,
      "慈": 4476,
      "態": 4477,
      "慌": 4478,
      "慎": 4479,
      "慕": 4480,
      "慢": 4481,
      "慣": 4482,
      "慧": 4483,
      "慰": 4484,
      "慶": 4485,
      "憂": 4486,
      "憎": 4487,
      "憑": 4488,
      "憲": 4489,
      "憶": 4490,
      "應": 4491,
      "懐": 4492,
      "懒": 4493,
      "懷": 4494,
      "懸": 4495,
      "懿": 4496,
      "戀": 4497,
      "戇": 4498,
      "戊": 4499,
      "戎": 4500,
      "戏": 4501,
      "成": 4502,
      "我": 4503,
      "戒": 4504,
      "或": 4505,
      "战": 4506,
      "戚": 4507,
      "戟": 4508,
      "戠": 4509,
      "戦": 4510,
      "截": 4511,
      "戯": 4512,
      "戰": 4513,
      "戴": 4514,
      "户": 4515,
      "戸": 4516,
      "房": 4517,
      "所": 4518,
      "扇": 4519,
      "扉": 4520,
      "手": 4521,
      "才": 4522,
      "扎": 4523,
      "扑": 4524,
      "打": 4525,
      "托": 4526,
      "扜": 4527,
      "扞": 4528,
      "扣": 4529,
      "执": 4530,
      "扫": 4531,
      "扬": 4532,
      "扭": 4533,
      "扰": 4534,
      "批": 4535,
      "承": 4536,
      "技": 4537,
      "抄": 4538,
      "把": 4539,
      "抒": 4540,
      "投": 4541,
      "抗": 4542,
      "抚": 4543,
      "抜": 4544,
      "択": 4545,
      "抠": 4546,
      "抢": 4547,
      "报": 4548,
      "披": 4549,
      "抬": 4550,
      "抱": 4551,
      "抹": 4552,
      "抿": 4553,
      "拂": 4554,
      "拆": 4555,
      "拉": 4556,
      "拌": 4557,
      "拍": 4558,
      "拒": 4559,
      "拓": 4560,
      "拔": 4561,
      "拘": 4562,
      "拙": 4563,
      "招": 4564,
      "拜": 4565,
      "拝": 4566,
      "拡": 4567,
      "拦": 4568,
      "括": 4569,
      "拳": 4570,
      "拼": 4571,
      "拽": 4572,
      "拾": 4573,
      "持": 4574,
      "挂": 4575,
      "指": 4576,
      "挑": 4577,
      "挙": 4578,
      "挠": 4579,
      "振": 4580,
      "挽": 4581,
      "捌": 4582,
      "捐": 4583,
      "捕": 4584,
      "捜": 4585,
      "换": 4586,
      "捧": 4587,
      "捨": 4588,
      "据": 4589,
      "捶": 4590,
      "捷": 4591,
      "掃": 4592,
      "授": 4593,
      "掌": 4594,
      "排": 4595,
      "掖": 4596,
      "掛": 4597,
      "掠": 4598,
      "探": 4599,
      "接": 4600,
      "推": 4601,
      "措": 4602,
      "掲": 4603,
      "掴": 4604,
      "揆": 4605,
      "描": 4606,
      "提": 4607,
      "插": 4608,
      "揚": 4609,
      "換": 4610,
      "揭": 4611,
      "揮": 4612,
      "援": 4613,
      "揺": 4614,
      "搁": 4615,
      "搓": 4616,
      "搖": 4617,
      "搜": 4618,
      "搭": 4619,
      "搰": 4620,
      "搽": 4621,
      "摂": 4622,
      "摆": 4623,
      "摘": 4624,
      "摩": 4625,
      "摺": 4626,
      "撃": 4627,
      "撈": 4628,
      "撐": 4629,
      "撑": 4630,
      "撒": 4631,
      "撤": 4632,
      "播": 4633,
      "撮": 4634,
      "撰": 4635,
      "擁": 4636,
      "擂": 4637,
      "操": 4638,
      "擦": 4639,
      "攝": 4640,
      "支": 4641,
      "收": 4642,
      "攸": 4643,
      "改": 4644,
      "攻": 4645,
      "放": 4646,
      "政": 4647,
      "故": 4648,
      "效": 4649,
      "敌": 4650,
      "敏": 4651,
      "救": 4652,
      "教": 4653,
      "敛": 4654,
      "敢": 4655,
      "散": 4656,
      "敦": 4657,
      "敬": 4658,
      "数": 4659,
      "敲": 4660,
      "整": 4661,
      "敵": 4662,
      "敷": 4663,
      "文": 4664,
      "斉": 4665,
      "斎": 4666,
      "斐": 4667,
      "斗": 4668,
      "料": 4669,
      "斛": 4670,
      "斜": 4671,
      "斥": 4672,
      "斧": 4673,
      "斬": 4674,
      "断": 4675,
      "斯": 4676,
      "新": 4677,
      "斷": 4678,
      "方": 4679,
      "於": 4680,
      "施": 4681,
      "旁": 4682,
      "旅": 4683,
      "旋": 4684,
      "族": 4685,
      "旗": 4686,
      "无": 4687,
      "日": 4688,
      "旦": 4689,
      "旧": 4690,
      "早": 4691,
      "旬": 4692,
      "旭": 4693,
      "时": 4694,
      "旷": 4695,
      "旺": 4696,
      "昇": 4697,
      "昌": 4698,
      "明": 4699,
      "昑": 4700,
      "易": 4701,
      "昔": 4702,
      "星": 4703,
      "映": 4704,
      "春": 4705,
      "昧": 4706,
      "昨": 4707,
      "昭": 4708,
      "是": 4709,
      "昱": 4710,
      "显": 4711,
      "時": 4712,
      "晃": 4713,
      "晉": 4714,
      "晋": 4715,
      "晓": 4716,
      "晚": 4717,
      "晨": 4718,
      "晩": 4719,
      "普": 4720,
      "景": 4721,
      "晴": 4722,
      "晶": 4723,
      "智": 4724,
      "暁": 4725,
      "暂": 4726,
      "暖": 4727,
      "暗": 4728,
      "暢": 4729,
      "暦": 4730,
      "暫": 4731,
      "暴": 4732,
      "暹": 4733,
      "曆": 4734,
      "曇": 4735,
      "曉": 4736,
      "曌": 4737,
      "曜": 4738,
      "曠": 4739,
      "曡": 4740,
      "曦": 4741,
      "曰": 4742,
      "曲": 4743,
      "曳": 4744,
      "更": 4745,
      "書": 4746,
      "曹": 4747,
      "曼": 4748,
      "曽": 4749,
      "曾": 4750,
      "替": 4751,
      "最": 4752,
      "會": 4753,
      "朅": 4754,
      "月": 4755,
      "有": 4756,
      "朋": 4757,
      "服": 4758,
      "朔": 4759,
      "朕": 4760,
      "朗": 4761,
      "望": 4762,
      "朝": 4763,
      "期": 4764,
      "木": 4765,
      "未": 4766,
      "末": 4767,
      "本": 4768,
      "札": 4769,
      "术": 4770,
      "朱": 4771,
      "朵": 4772,
      "机": 4773,
      "杀": 4774,
      "杂": 4775,
      "权": 4776,
      "杆": 4777,
      "杉": 4778,
      "李": 4779,
      "杏": 4780,
      "材": 4781,
      "村": 4782,
      "杓": 4783,
      "杖": 4784,
      "杜": 4785,
      "杞": 4786,
      "束": 4787,
      "条": 4788,
      "来": 4789,
      "杨": 4790,
      "杭": 4791,
      "杯": 4792,
      "杰": 4793,
      "東": 4794,
      "杵": 4795,
      "松": 4796,
      "板": 4797,
      "极": 4798,
      "析": 4799,
      "枕": 4800,
      "林": 4801,
      "果": 4802,
      "枝": 4803,
      "枢": 4804,
      "枣": 4805,
      "枪": 4806,
      "枫": 4807,
      "枯": 4808,
      "架": 4809,
      "枸": 4810,
      "枼": 4811,
      "柄": 4812,
      "柏": 4813,
      "某": 4814,
      "柑": 4815,
      "柒": 4816,
      "染": 4817,
      "柔": 4818,
      "柚": 4819,
      "柠": 4820,
      "查": 4821,
      "柯": 4822,
      "柱": 4823,
      "柳": 4824,
      "柴": 4825,
      "査": 4826,
      "柿": 4827,
      "栀": 4828,
      "栄": 4829,
      "标": 4830,
      "栋": 4831,
      "树": 4832,
      "栖": 4833,
      "栗": 4834,
      "校": 4835,
      "株": 4836,
      "样": 4837,
      "核": 4838,
      "根": 4839,
      "格": 4840,
      "栽": 4841,
      "桂": 4842,
      "桃": 4843,
      "框": 4844,
      "案": 4845,
      "桐": 4846,
      "桑": 4847,
      "桓": 4848,
      "桜": 4849,
      "档": 4850,
      "桥": 4851,
      "桩": 4852,
      "桴": 4853,
      "梁": 4854,
      "梅": 4855,
      "梘": 4856,
      "條": 4857,
      "梦": 4858,
      "梧": 4859,
      "梨": 4860,
      "梭": 4861,
      "梯": 4862,
      "械": 4863,
      "梵": 4864,
      "梶": 4865,
      "梹": 4866,
      "棄": 4867,
      "棋": 4868,
      "棍": 4869,
      "棒": 4870,
      "棕": 4871,
      "棗": 4872,
      "棘": 4873,
      "棚": 4874,
      "棟": 4875,
      "森": 4876,
      "棲": 4877,
      "棺": 4878,
      "椀": 4879,
      "椅": 4880,
      "植": 4881,
      "椎": 4882,
      "椒": 4883,
      "椹": 4884,
      "楊": 4885,
      "楓": 4886,
      "楚": 4887,
      "楞": 4888,
      "楠": 4889,
      "楢": 4890,
      "楤": 4891,
      "楪": 4892,
      "業": 4893,
      "楯": 4894,
      "極": 4895,
      "楷": 4896,
      "楼": 4897,
      "楽": 4898,
      "概": 4899,
      "榆": 4900,
      "榊": 4901,
      "榔": 4902,
      "榕": 4903,
      "榖": 4904,
      "榛": 4905,
      "榜": 4906,
      "榮": 4907,
      "槃": 4908,
      "構": 4909,
      "槌": 4910,
      "槍": 4911,
      "槐": 4912,
      "様": 4913,
      "槻": 4914,
      "樂": 4915,
      "樑": 4916,
      "樓": 4917,
      "標": 4918,
      "樛": 4919,
      "樟": 4920,
      "模": 4921,
      "権": 4922,
      "横": 4923,
      "樵": 4924,
      "樹": 4925,
      "樺": 4926,
      "樽": 4927,
      "樾": 4928,
      "橋": 4929,
      "橖": 4930,
      "橘": 4931,
      "橙": 4932,
      "機": 4933,
      "橫": 4934,
      "橱": 4935,
      "檀": 4936,
      "檚": 4937,
      "櫃": 4938,
      "櫓": 4939,
      "權": 4940,
      "欠": 4941,
      "次": 4942,
      "欣": 4943,
      "欧": 4944,
      "欲": 4945,
      "款": 4946,
      "歌": 4947,
      "歐": 4948,
      "歓": 4949,
      "歡": 4950,
      "止": 4951,
      "正": 4952,
      "此": 4953,
      "步": 4954,
      "武": 4955,
      "歩": 4956,
      "歲": 4957,
      "歳": 4958,
      "歴": 4959,
      "歷": 4960,
      "歸": 4961,
      "死": 4962,
      "殊": 4963,
      "残": 4964,
      "殘": 4965,
      "殤": 4966,
      "段": 4967,
      "殷": 4968,
      "殺": 4969,
      "殿": 4970,
      "毁": 4971,
      "毅": 4972,
      "母": 4973,
      "每": 4974,
      "毒": 4975,
      "比": 4976,
      "毕": 4977,
      "毘": 4978,
      "毛": 4979,
      "毫": 4980,
      "氏": 4981,
      "民": 4982,
      "气": 4983,
      "気": 4984,
      "氣": 4985,
      "氯": 4986,
      "水": 4987,
      "氷": 4988,
      "永": 4989,
      "汁": 4990,
      "求": 4991,
      "汇": 4992,
      "汉": 4993,
      "汗": 4994,
      "汚": 4995,
      "汜": 4996,
      "汝": 4997,
      "汞": 4998,
      "江": 4999,
      "池": 5000,
      "汤": 5001,
      "汪": 5002,
      "汰": 5003,
      "汶": 5004,
      "決": 5005,
      "汽": 5006,
      "沈": 5007,
      "沉": 5008,
      "沒": 5009,
      "沔": 5010,
      "沖": 5011,
      "沙": 5012,
      "沛": 5013,
      "沝": 5014,
      "沟": 5015,
      "没": 5016,
      "沢": 5017,
      "沧": 5018,
      "河": 5019,
      "油": 5020,
      "治": 5021,
      "沼": 5022,
      "沿": 5023,
      "況": 5024,
      "泉": 5025,
      "泊": 5026,
      "法": 5027,
      "泗": 5028,
      "泛": 5029,
      "波": 5030,
      "泣": 5031,
      "泥": 5032,
      "注": 5033,
      "泪": 5034,
      "泰": 5035,
      "泼": 5036,
      "泽": 5037,
      "洁": 5038,
      "洋": 5039,
      "洗": 5040,
      "洙": 5041,
      "洛": 5042,
      "洞": 5043,
      "津": 5044,
      "洪": 5045,
      "洲": 5046,
      "洳": 5047,
      "洹": 5048,
      "活": 5049,
      "派": 5050,
      "流": 5051,
      "浄": 5052,
      "浅": 5053,
      "浇": 5054,
      "测": 5055,
      "济": 5056,
      "浒": 5057,
      "浙": 5058,
      "浜": 5059,
      "浣": 5060,
      "浤": 5061,
      "浦": 5062,
      "浩": 5063,
      "浪": 5064,
      "浮": 5065,
      "浳": 5066,
      "海": 5067,
      "涂": 5068,
      "涅": 5069,
      "消": 5070,
      "涌": 5071,
      "涙": 5072,
      "涛": 5073,
      "涞": 5074,
      "涣": 5075,
      "润": 5076,
      "液": 5077,
      "涼": 5078,
      "淀": 5079,
      "淄": 5080,
      "淇": 5081,
      "淋": 5082,
      "淑": 5083,
      "淘": 5084,
      "淚": 5085,
      "淞": 5086,
      "淡": 5087,
      "淨": 5088,
      "淮": 5089,
      "深": 5090,
      "淳": 5091,
      "淵": 5092,
      "混": 5093,
      "淹": 5094,
      "添": 5095,
      "清": 5096,
      "渇": 5097,
      "済": 5098,
      "渔": 5099,
      "減": 5100,
      "渟": 5101,
      "渠": 5102,
      "渡": 5103,
      "渦": 5104,
      "温": 5105,
      "測": 5106,
      "港": 5107,
      "游": 5108,
      "渾": 5109,
      "湃": 5110,
      "湄": 5111,
      "湊": 5112,
      "湖": 5113,
      "湘": 5114,
      "湛": 5115,
      "湡": 5116,
      "湣": 5117,
      "湧": 5118,
      "湯": 5119,
      "湼": 5120,
      "湾": 5121,
      "満": 5122,
      "源": 5123,
      "準": 5124,
      "溜": 5125,
      "溝": 5126,
      "溪": 5127,
      "溫": 5128,
      "滄": 5129,
      "滅": 5130,
      "滇": 5131,
      "滋": 5132,
      "滑": 5133,
      "滕": 5134,
      "滚": 5135,
      "满": 5136,
      "滩": 5137,
      "滲": 5138,
      "滴": 5139,
      "滸": 5140,
      "滾": 5141,
      "滿": 5142,
      "漁": 5143,
      "漆": 5144,
      "漏": 5145,
      "演": 5146,
      "漠": 5147,
      "漢": 5148,
      "漪": 5149,
      "漫": 5150,
      "漳": 5151,
      "漸": 5152,
      "漿": 5153,
      "潔": 5154,
      "潘": 5155,
      "潛": 5156,
      "潜": 5157,
      "潤": 5158,
      "潭": 5159,
      "潮": 5160,
      "澄": 5161,
      "澤": 5162,
      "澳": 5163,
      "激": 5164,
      "濁": 5165,
      "濃": 5166,
      "濕": 5167,
      "濟": 5168,
      "濡": 5169,
      "濤": 5170,
      "濮": 5171,
      "濾": 5172,
      "瀉": 5173,
      "瀚": 5174,
      "瀧": 5175,
      "瀬": 5176,
      "瀾": 5177,
      "灌": 5178,
      "灣": 5179,
      "火": 5180,
      "灭": 5181,
      "灯": 5182,
      "灰": 5183,
      "灵": 5184,
      "灶": 5185,
      "灸": 5186,
      "災": 5187,
      "灿": 5188,
      "炉": 5189,
      "炊": 5190,
      "炎": 5191,
      "炒": 5192,
      "炮": 5193,
      "炳": 5194,
      "炸": 5195,
      "点": 5196,
      "為": 5197,
      "炼": 5198,
      "烈": 5199,
      "烏": 5200,
      "烟": 5201,
      "烧": 5202,
      "热": 5203,
      "焕": 5204,
      "焖": 5205,
      "無": 5206,
      "焦": 5207,
      "焰": 5208,
      "然": 5209,
      "焼": 5210,
      "煐": 5211,
      "煖": 5212,
      "煙": 5213,
      "煤": 5214,
      "煥": 5215,
      "照": 5216,
      "煪": 5217,
      "煬": 5218,
      "煱": 5219,
      "煵": 5220,
      "熄": 5221,
      "熊": 5222,
      "熕": 5223,
      "熙": 5224,
      "熟": 5225,
      "熱": 5226,
      "熹": 5227,
      "燁": 5228,
      "燃": 5229,
      "燈": 5230,
      "燒": 5231,
      "燕": 5232,
      "營": 5233,
      "燥": 5234,
      "燴": 5235,
      "爆": 5236,
      "爪": 5237,
      "爭": 5238,
      "爱": 5239,
      "爲": 5240,
      "爵": 5241,
      "父": 5242,
      "爷": 5243,
      "爺": 5244,
      "爽": 5245,
      "爾": 5246,
      "片": 5247,
      "版": 5248,
      "牌": 5249,
      "牒": 5250,
      "牙": 5251,
      "牛": 5252,
      "牝": 5253,
      "牟": 5254,
      "牡": 5255,
      "牢": 5256,
      "牧": 5257,
      "物": 5258,
      "牲": 5259,
      "特": 5260,
      "犁": 5261,
      "犬": 5262,
      "犭": 5263,
      "犯": 5264,
      "状": 5265,
      "狂": 5266,
      "狄": 5267,
      "狆": 5268,
      "狐": 5269,
      "狗": 5270,
      "狩": 5271,
      "独": 5272,
      "狮": 5273,
      "狸": 5274,
      "狼": 5275,
      "猛": 5276,
      "猜": 5277,
      "猟": 5278,
      "猪": 5279,
      "猫": 5280,
      "献": 5281,
      "猴": 5282,
      "猶": 5283,
      "猿": 5284,
      "獄": 5285,
      "獅": 5286,
      "獎": 5287,
      "獣": 5288,
      "獨": 5289,
      "獩": 5290,
      "獲": 5291,
      "獺": 5292,
      "獻": 5293,
      "玄": 5294,
      "玉": 5295,
      "王": 5296,
      "玖": 5297,
      "玛": 5298,
      "玦": 5299,
      "玩": 5300,
      "玫": 5301,
      "环": 5302,
      "现": 5303,
      "玲": 5304,
      "珊": 5305,
      "珍": 5306,
      "珎": 5307,
      "珑": 5308,
      "珠": 5309,
      "珪": 5310,
      "班": 5311,
      "現": 5312,
      "球": 5313,
      "理": 5314,
      "琉": 5315,
      "琐": 5316,
      "琛": 5317,
      "琢": 5318,
      "琳": 5319,
      "琴": 5320,
      "琵": 5321,
      "琶": 5322,
      "琼": 5323,
      "瑄": 5324,
      "瑕": 5325,
      "瑚": 5326,
      "瑞": 5327,
      "瑟": 5328,
      "瑪": 5329,
      "瑰": 5330,
      "瑶": 5331,
      "璋": 5332,
      "璠": 5333,
      "璧": 5334,
      "璨": 5335,
      "環": 5336,
      "璽": 5337,
      "瓜": 5338,
      "瓠": 5339,
      "瓢": 5340,
      "瓣": 5341,
      "瓦": 5342,
      "瓶": 5343,
      "瓷": 5344,
      "甄": 5345,
      "甌": 5346,
      "甘": 5347,
      "甚": 5348,
      "甜": 5349,
      "生": 5350,
      "產": 5351,
      "産": 5352,
      "用": 5353,
      "甫": 5354,
      "田": 5355,
      "由": 5356,
      "甲": 5357,
      "申": 5358,
      "电": 5359,
      "男": 5360,
      "町": 5361,
      "画": 5362,
      "界": 5363,
      "畏": 5364,
      "畔": 5365,
      "留": 5366,
      "畜": 5367,
      "畢": 5368,
      "略": 5369,
      "番": 5370,
      "畫": 5371,
      "異": 5372,
      "畱": 5373,
      "當": 5374,
      "畷": 5375,
      "疊": 5376,
      "疋": 5377,
      "疗": 5378,
      "疯": 5379,
      "疲": 5380,
      "疼": 5381,
      "疾": 5382,
      "病": 5383,
      "痛": 5384,
      "痴": 5385,
      "瘋": 5386,
      "療": 5387,
      "癡": 5388,
      "発": 5389,
      "登": 5390,
      "發": 5391,
      "白": 5392,
      "百": 5393,
      "的": 5394,
      "皆": 5395,
      "皇": 5396,
      "皎": 5397,
      "皝": 5398,
      "皮": 5399,
      "皿": 5400,
      "盃": 5401,
      "盆": 5402,
      "益": 5403,
      "盐": 5404,
      "盒": 5405,
      "盖": 5406,
      "盘": 5407,
      "盛": 5408,
      "盞": 5409,
      "盟": 5410,
      "盡": 5411,
      "監": 5412,
      "盤": 5413,
      "盧": 5414,
      "目": 5415,
      "直": 5416,
      "相": 5417,
      "盾": 5418,
      "省": 5419,
      "眉": 5420,
      "看": 5421,
      "県": 5422,
      "眞": 5423,
      "真": 5424,
      "眠": 5425,
      "眼": 5426,
      "着": 5427,
      "睇": 5428,
      "睡": 5429,
      "督": 5430,
      "睤": 5431,
      "睺": 5432,
      "瞬": 5433,
      "瞳": 5434,
      "矛": 5435,
      "矢": 5436,
      "知": 5437,
      "短": 5438,
      "矮": 5439,
      "石": 5440,
      "矿": 5441,
      "码": 5442,
      "砂": 5443,
      "研": 5444,
      "砦": 5445,
      "破": 5446,
      "砸": 5447,
      "础": 5448,
      "硕": 5449,
      "确": 5450,
      "碁": 5451,
      "碌": 5452,
      "碑": 5453,
      "碗": 5454,
      "碟": 5455,
      "碧": 5456,
      "碱": 5457,
      "確": 5458,
      "碼": 5459,
      "磐": 5460,
      "磨": 5461,
      "磯": 5462,
      "礁": 5463,
      "礙": 5464,
      "示": 5465,
      "礼": 5466,
      "礽": 5467,
      "社": 5468,
      "祀": 5469,
      "祇": 5470,
      "祈": 5471,
      "祐": 5472,
      "祕": 5473,
      "祖": 5474,
      "祜": 5475,
      "祝": 5476,
      "神": 5477,
      "祠": 5478,
      "祥": 5479,
      "票": 5480,
      "祭": 5481,
      "祿": 5482,
      "禁": 5483,
      "禄": 5484,
      "禅": 5485,
      "禍": 5486,
      "禎": 5487,
      "福": 5488,
      "禧": 5489,
      "禪": 5490,
      "禮": 5491,
      "禹": 5492,
      "离": 5493,
      "禽": 5494,
      "秀": 5495,
      "私": 5496,
      "秃": 5497,
      "秉": 5498,
      "秋": 5499,
      "种": 5500,
      "科": 5501,
      "秒": 5502,
      "秘": 5503,
      "租": 5504,
      "秦": 5505,
      "积": 5506,
      "称": 5507,
      "移": 5508,
      "程": 5509,
      "税": 5510,
      "稔": 5511,
      "稚": 5512,
      "稠": 5513,
      "種": 5514,
      "稱": 5515,
      "稲": 5516,
      "稷": 5517,
      "稻": 5518,
      "稽": 5519,
      "穂": 5520,
      "穆": 5521,
      "積": 5522,
      "穎": 5523,
      "穴": 5524,
      "究": 5525,
      "穹": 5526,
      "空": 5527,
      "穿": 5528,
      "突": 5529,
      "窑": 5530,
      "窓": 5531,
      "窟": 5532,
      "窦": 5533,
      "窯": 5534,
      "竅": 5535,
      "竈": 5536,
      "立": 5537,
      "竖": 5538,
      "站": 5539,
      "竜": 5540,
      "竟": 5541,
      "章": 5542,
      "童": 5543,
      "端": 5544,
      "竹": 5545,
      "竺": 5546,
      "笃": 5547,
      "笄": 5548,
      "笈": 5549,
      "笑": 5550,
      "笔": 5551,
      "笙": 5552,
      "笛": 5553,
      "笠": 5554,
      "符": 5555,
      "第": 5556,
      "笼": 5557,
      "筅": 5558,
      "筆": 5559,
      "等": 5560,
      "筋": 5561,
      "筑": 5562,
      "答": 5563,
      "策": 5564,
      "筠": 5565,
      "筷": 5566,
      "简": 5567,
      "箇": 5568,
      "箋": 5569,
      "箍": 5570,
      "箕": 5571,
      "算": 5572,
      "管": 5573,
      "箫": 5574,
      "箭": 5575,
      "箱": 5576,
      "箸": 5577,
      "節": 5578,
      "範": 5579,
      "篆": 5580,
      "篇": 5581,
      "篠": 5582,
      "篩": 5583,
      "篮": 5584,
      "簋": 5585,
      "簠": 5586,
      "簡": 5587,
      "簫": 5588,
      "簽": 5589,
      "簾": 5590,
      "簿": 5591,
      "籀": 5592,
      "籁": 5593,
      "籍": 5594,
      "籠": 5595,
      "米": 5596,
      "类": 5597,
      "粉": 5598,
      "粋": 5599,
      "粒": 5600,
      "粕": 5601,
      "粟": 5602,
      "粤": 5603,
      "粥": 5604,
      "粱": 5605,
      "粵": 5606,
      "粹": 5607,
      "粽": 5608,
      "精": 5609,
      "糖": 5610,
      "糟": 5611,
      "糸": 5612,
      "糺": 5613,
      "系": 5614,
      "紀": 5615,
      "紂": 5616,
      "約": 5617,
      "紅": 5618,
      "紇": 5619,
      "紋": 5620,
      "納": 5621,
      "純": 5622,
      "紗": 5623,
      "紙": 5624,
      "級": 5625,
      "素": 5626,
      "索": 5627,
      "紧": 5628,
      "紫": 5629,
      "累": 5630,
      "細": 5631,
      "紹": 5632,
      "紺": 5633,
      "終": 5634,
      "組": 5635,
      "絆": 5636,
      "経": 5637,
      "結": 5638,
      "絕": 5639,
      "絞": 5640,
      "給": 5641,
      "統": 5642,
      "絲": 5643,
      "絵": 5644,
      "綏": 5645,
      "經": 5646,
      "継": 5647,
      "続": 5648,
      "綜": 5649,
      "綠": 5650,
      "綬": 5651,
      "維": 5652,
      "綱": 5653,
      "網": 5654,
      "綺": 5655,
      "綾": 5656,
      "緋": 5657,
      "総": 5658,
      "緑": 5659,
      "緒": 5660,
      "線": 5661,
      "緣": 5662,
      "編": 5663,
      "緩": 5664,
      "緯": 5665,
      "練": 5666,
      "縁": 5667,
      "縄": 5668,
      "縣": 5669,
      "總": 5670,
      "繁": 5671,
      "繆": 5672,
      "繇": 5673,
      "繊": 5674,
      "繋": 5675,
      "織": 5676,
      "繡": 5677,
      "繰": 5678,
      "繼": 5679,
      "續": 5680,
      "红": 5681,
      "纣": 5682,
      "约": 5683,
      "级": 5684,
      "纪": 5685,
      "纲": 5686,
      "纳": 5687,
      "纸": 5688,
      "线": 5689,
      "练": 5690,
      "组": 5691,
      "织": 5692,
      "终": 5693,
      "绍": 5694,
      "经": 5695,
      "结": 5696,
      "绕": 5697,
      "绗": 5698,
      "给": 5699,
      "绛": 5700,
      "络": 5701,
      "绝": 5702,
      "绞": 5703,
      "统": 5704,
      "继": 5705,
      "绪": 5706,
      "绰": 5707,
      "维": 5708,
      "绵": 5709,
      "绷": 5710,
      "绸": 5711,
      "综": 5712,
      "绿": 5713,
      "缓": 5714,
      "缔": 5715,
      "编": 5716,
      "缘": 5717,
      "缠": 5718,
      "缽": 5719,
      "网": 5720,
      "罗": 5721,
      "罠": 5722,
      "罪": 5723,
      "置": 5724,
      "署": 5725,
      "罷": 5726,
      "罽": 5727,
      "羅": 5728,
      "羊": 5729,
      "羌": 5730,
      "美": 5731,
      "羔": 5732,
      "群": 5733,
      "義": 5734,
      "羲": 5735,
      "羹": 5736,
      "羽": 5737,
      "翁": 5738,
      "翅": 5739,
      "習": 5740,
      "翔": 5741,
      "翠": 5742,
      "翡": 5743,
      "翰": 5744,
      "翹": 5745,
      "翻": 5746,
      "翼": 5747,
      "耀": 5748,
      "老": 5749,
      "考": 5750,
      "者": 5751,
      "耆": 5752,
      "而": 5753,
      "耐": 5754,
      "耕": 5755,
      "耘": 5756,
      "耨": 5757,
      "耳": 5758,
      "耶": 5759,
      "耻": 5760,
      "耿": 5761,
      "聂": 5762,
      "聆": 5763,
      "聊": 5764,
      "联": 5765,
      "聖": 5766,
      "聘": 5767,
      "聚": 5768,
      "聞": 5769,
      "聪": 5770,
      "聯": 5771,
      "聲": 5772,
      "職": 5773,
      "聽": 5774,
      "聿": 5775,
      "肃": 5776,
      "肅": 5777,
      "肆": 5778,
      "肇": 5779,
      "肉": 5780,
      "肌": 5781,
      "肖": 5782,
      "肘": 5783,
      "肠": 5784,
      "股": 5785,
      "肩": 5786,
      "肯": 5787,
      "育": 5788,
      "肸": 5789,
      "肺": 5790,
      "胃": 5791,
      "胄": 5792,
      "胆": 5793,
      "背": 5794,
      "胎": 5795,
      "胜": 5796,
      "胞": 5797,
      "胡": 5798,
      "胶": 5799,
      "胸": 5800,
      "能": 5801,
      "脂": 5802,
      "脇": 5803,
      "脈": 5804,
      "脉": 5805,
      "脏": 5806,
      "脑": 5807,
      "脚": 5808,
      "脣": 5809,
      "脩": 5810,
      "脫": 5811,
      "脱": 5812,
      "脳": 5813,
      "脿": 5814,
      "腊": 5815,
      "腐": 5816,
      "腔": 5817,
      "腕": 5818,
      "腰": 5819,
      "腳": 5820,
      "腹": 5821,
      "腿": 5822,
      "膏": 5823,
      "膚": 5824,
      "膝": 5825,
      "臘": 5826,
      "臚": 5827,
      "臣": 5828,
      "臥": 5829,
      "臧": 5830,
      "臨": 5831,
      "自": 5832,
      "至": 5833,
      "致": 5834,
      "臺": 5835,
      "臼": 5836,
      "與": 5837,
      "興": 5838,
      "舉": 5839,
      "舊": 5840,
      "舌": 5841,
      "舍": 5842,
      "舎": 5843,
      "舒": 5844,
      "舜": 5845,
      "舞": 5846,
      "舟": 5847,
      "航": 5848,
      "舫": 5849,
      "般": 5850,
      "舱": 5851,
      "船": 5852,
      "艦": 5853,
      "艮": 5854,
      "良": 5855,
      "色": 5856,
      "艶": 5857,
      "艷": 5858,
      "艸": 5859,
      "艺": 5860,
      "艾": 5861,
      "节": 5862,
      "芋": 5863,
      "芍": 5864,
      "芎": 5865,
      "芗": 5866,
      "芜": 5867,
      "芝": 5868,
      "芥": 5869,
      "芦": 5870,
      "芬": 5871,
      "芮": 5872,
      "芯": 5873,
      "花": 5874,
      "芳": 5875,
      "芸": 5876,
      "芹": 5877,
      "芽": 5878,
      "苏": 5879,
      "苑": 5880,
      "苔": 5881,
      "苗": 5882,
      "若": 5883,
      "苦": 5884,
      "苯": 5885,
      "英": 5886,
      "苳": 5887,
      "苹": 5888,
      "苻": 5889,
      "茂": 5890,
      "范": 5891,
      "茄": 5892,
      "茅": 5893,
      "茉": 5894,
      "茖": 5895,
      "茜": 5896,
      "茫": 5897,
      "茱": 5898,
      "茲": 5899,
      "茶": 5900,
      "茹": 5901,
      "荀": 5902,
      "荆": 5903,
      "草": 5904,
      "荒": 5905,
      "荘": 5906,
      "荣": 5907,
      "药": 5908,
      "荷": 5909,
      "荼": 5910,
      "莉": 5911,
      "莊": 5912,
      "莒": 5913,
      "莞": 5914,
      "莢": 5915,
      "莫": 5916,
      "莱": 5917,
      "莲": 5918,
      "获": 5919,
      "菁": 5920,
      "菅": 5921,
      "菇": 5922,
      "菊": 5923,
      "菏": 5924,
      "菓": 5925,
      "菜": 5926,
      "菟": 5927,
      "菩": 5928,
      "華": 5929,
      "菰": 5930,
      "菱": 5931,
      "菻": 5932,
      "萃": 5933,
      "萄": 5934,
      "萌": 5935,
      "萍": 5936,
      "萧": 5937,
      "萨": 5938,
      "萬": 5939,
      "萱": 5940,
      "萸": 5941,
      "落": 5942,
      "葉": 5943,
      "著": 5944,
      "葛": 5945,
      "葡": 5946,
      "董": 5947,
      "葦": 5948,
      "葫": 5949,
      "葬": 5950,
      "葭": 5951,
      "葱": 5952,
      "葵": 5953,
      "蒂": 5954,
      "蒋": 5955,
      "蒙": 5956,
      "蒜": 5957,
      "蒲": 5958,
      "蒼": 5959,
      "蓉": 5960,
      "蓝": 5961,
      "蓬": 5962,
      "蓮": 5963,
      "蔀": 5964,
      "蔓": 5965,
      "蔗": 5966,
      "蔡": 5967,
      "蔣": 5968,
      "蔫": 5969,
      "蔵": 5970,
      "蔷": 5971,
      "蕃": 5972,
      "蕅": 5973,
      "蕎": 5974,
      "蕨": 5975,
      "蕩": 5976,
      "蕭": 5977,
      "薄": 5978,
      "薇": 5979,
      "薑": 5980,
      "薙": 5981,
      "薛": 5982,
      "薩": 5983,
      "薪": 5984,
      "薬": 5985,
      "藁": 5986,
      "藍": 5987,
      "藏": 5988,
      "藐": 5989,
      "藝": 5990,
      "藤": 5991,
      "藥": 5992,
      "藩": 5993,
      "藪": 5994,
      "藻": 5995,
      "蘄": 5996,
      "蘆": 5997,
      "蘇": 5998,
      "蘋": 5999,
      "蘭": 6000,
      "虎": 6001,
      "虐": 6002,
      "虑": 6003,
      "處": 6004,
      "虚": 6005,
      "虛": 6006,
      "虜": 6007,
      "虞": 6008,
      "號": 6009,
      "虫": 6010,
      "虯": 6011,
      "虹": 6012,
      "蚌": 6013,
      "蛇": 6014,
      "蛋": 6015,
      "蛍": 6016,
      "蛙": 6017,
      "蛛": 6018,
      "蛟": 6019,
      "蛤": 6020,
      "蛮": 6021,
      "蛸": 6022,
      "蜀": 6023,
      "蜂": 6024,
      "蜘": 6025,
      "蜜": 6026,
      "蝉": 6027,
      "蝕": 6028,
      "蝦": 6029,
      "蝴": 6030,
      "蝶": 6031,
      "螂": 6032,
      "融": 6033,
      "螳": 6034,
      "螺": 6035,
      "蟲": 6036,
      "蟹": 6037,
      "蠶": 6038,
      "蠻": 6039,
      "血": 6040,
      "衆": 6041,
      "行": 6042,
      "衍": 6043,
      "衒": 6044,
      "術": 6045,
      "街": 6046,
      "衙": 6047,
      "衛": 6048,
      "衝": 6049,
      "衡": 6050,
      "衢": 6051,
      "衣": 6052,
      "表": 6053,
      "衫": 6054,
      "衰": 6055,
      "袁": 6056,
      "袋": 6057,
      "袍": 6058,
      "袖": 6059,
      "被": 6060,
      "袾": 6061,
      "裁": 6062,
      "裂": 6063,
      "装": 6064,
      "裏": 6065,
      "裕": 6066,
      "裙": 6067,
      "補": 6068,
      "裡": 6069,
      "裵": 6070,
      "裸": 6071,
      "裹": 6072,
      "製": 6073,
      "複": 6074,
      "褐": 6075,
      "褒": 6076,
      "褶": 6077,
      "襄": 6078,
      "襲": 6079,
      "西": 6080,
      "要": 6081,
      "覃": 6082,
      "覇": 6083,
      "見": 6084,
      "規": 6085,
      "視": 6086,
      "覚": 6087,
      "覧": 6088,
      "親": 6089,
      "観": 6090,
      "覵": 6091,
      "覺": 6092,
      "覽": 6093,
      "觀": 6094,
      "见": 6095,
      "观": 6096,
      "规": 6097,
      "视": 6098,
      "览": 6099,
      "觉": 6100,
      "角": 6101,
      "解": 6102,
      "言": 6103,
      "訂": 6104,
      "計": 6105,
      "訊": 6106,
      "討": 6107,
      "訓": 6108,
      "記": 6109,
      "訣": 6110,
      "訪": 6111,
      "設": 6112,
      "許": 6113,
      "訳": 6114,
      "訶": 6115,
      "診": 6116,
      "証": 6117,
      "詔": 6118,
      "評": 6119,
      "詞": 6120,
      "詥": 6121,
      "試": 6122,
      "詩": 6123,
      "詮": 6124,
      "話": 6125,
      "該": 6126,
      "誌": 6127,
      "認": 6128,
      "誓": 6129,
      "誕": 6130,
      "誘": 6131,
      "語": 6132,
      "誠": 6133,
      "誡": 6134,
      "誤": 6135,
      "誥": 6136,
      "誦": 6137,
      "說": 6138,
      "説": 6139,
      "読": 6140,
      "誰": 6141,
      "課": 6142,
      "誼": 6143,
      "調": 6144,
      "談": 6145,
      "請": 6146,
      "論": 6147,
      "諦": 6148,
      "諭": 6149,
      "諷": 6150,
      "諸": 6151,
      "諺": 6152,
      "諾": 6153,
      "謀": 6154,
      "謂": 6155,
      "謎": 6156,
      "謐": 6157,
      "謙": 6158,
      "講": 6159,
      "謝": 6160,
      "謹": 6161,
      "證": 6162,
      "譓": 6163,
      "識": 6164,
      "譚": 6165,
      "譜": 6166,
      "警": 6167,
      "譬": 6168,
      "譯": 6169,
      "議": 6170,
      "護": 6171,
      "譽": 6172,
      "讀": 6173,
      "讃": 6174,
      "變": 6175,
      "讓": 6176,
      "计": 6177,
      "认": 6178,
      "讨": 6179,
      "让": 6180,
      "议": 6181,
      "记": 6182,
      "讲": 6183,
      "论": 6184,
      "设": 6185,
      "访": 6186,
      "诀": 6187,
      "证": 6188,
      "诃": 6189,
      "评": 6190,
      "识": 6191,
      "诉": 6192,
      "词": 6193,
      "诏": 6194,
      "诒": 6195,
      "试": 6196,
      "诗": 6197,
      "诚": 6198,
      "话": 6199,
      "该": 6200,
      "语": 6201,
      "说": 6202,
      "请": 6203,
      "诸": 6204,
      "诺": 6205,
      "读": 6206,
      "谅": 6207,
      "谈": 6208,
      "谓": 6209,
      "谜": 6210,
      "谢": 6211,
      "谣": 6212,
      "谦": 6213,
      "谭": 6214,
      "谱": 6215,
      "谷": 6216,
      "豆": 6217,
      "豊": 6218,
      "豐": 6219,
      "象": 6220,
      "豪": 6221,
      "豫": 6222,
      "豬": 6223,
      "豸": 6224,
      "豹": 6225,
      "貉": 6226,
      "貍": 6227,
      "貓": 6228,
      "貝": 6229,
      "貞": 6230,
      "財": 6231,
      "貢": 6232,
      "貨": 6233,
      "販": 6234,
      "貫": 6235,
      "責": 6236,
      "貯": 6237,
      "貳": 6238,
      "貴": 6239,
      "買": 6240,
      "費": 6241,
      "貼": 6242,
      "賀": 6243,
      "資": 6244,
      "賊": 6245,
      "賓": 6246,
      "賜": 6247,
      "賞": 6248,
      "賢": 6249,
      "賦": 6250,
      "賧": 6251,
      "質": 6252,
      "賭": 6253,
      "賴": 6254,
      "購": 6255,
      "賽": 6256,
      "贅": 6257,
      "贊": 6258,
      "贝": 6259,
      "贞": 6260,
      "贡": 6261,
      "财": 6262,
      "责": 6263,
      "贤": 6264,
      "败": 6265,
      "货": 6266,
      "质": 6267,
      "贯": 6268,
      "贴": 6269,
      "贵": 6270,
      "费": 6271,
      "贺": 6272,
      "贼": 6273,
      "资": 6274,
      "赋": 6275,
      "赖": 6276,
      "赛": 6277,
      "赞": 6278,
      "赟": 6279,
      "赣": 6280,
      "赤": 6281,
      "赦": 6282,
      "赫": 6283,
      "走": 6284,
      "赴": 6285,
      "赵": 6286,
      "赶": 6287,
      "起": 6288,
      "超": 6289,
      "越": 6290,
      "趙": 6291,
      "趟": 6292,
      "趣": 6293,
      "足": 6294,
      "跃": 6295,
      "跋": 6296,
      "跑": 6297,
      "距": 6298,
      "跟": 6299,
      "跡": 6300,
      "路": 6301,
      "跳": 6302,
      "踊": 6303,
      "踏": 6304,
      "踢": 6305,
      "踹": 6306,
      "蹈": 6307,
      "蹟": 6308,
      "蹦": 6309,
      "蹬": 6310,
      "身": 6311,
      "躯": 6312,
      "躺": 6313,
      "車": 6314,
      "軌": 6315,
      "軍": 6316,
      "軒": 6317,
      "転": 6318,
      "軻": 6319,
      "軽": 6320,
      "載": 6321,
      "輔": 6322,
      "輕": 6323,
      "輛": 6324,
      "輝": 6325,
      "輨": 6326,
      "輩": 6327,
      "輪": 6328,
      "輯": 6329,
      "輿": 6330,
      "轄": 6331,
      "轅": 6332,
      "轉": 6333,
      "车": 6334,
      "轨": 6335,
      "轩": 6336,
      "转": 6337,
      "轮": 6338,
      "软": 6339,
      "轻": 6340,
      "载": 6341,
      "轿": 6342,
      "辅": 6343,
      "辆": 6344,
      "辈": 6345,
      "辉": 6346,
      "辑": 6347,
      "辙": 6348,
      "辛": 6349,
      "辞": 6350,
      "辟": 6351,
      "辣": 6352,
      "辧": 6353,
      "辨": 6354,
      "辭": 6355,
      "辰": 6356,
      "辱": 6357,
      "農": 6358,
      "边": 6359,
      "辺": 6360,
      "辻": 6361,
      "辽": 6362,
      "达": 6363,
      "迁": 6364,
      "迄": 6365,
      "迅": 6366,
      "过": 6367,
      "迎": 6368,
      "运": 6369,
      "近": 6370,
      "返": 6371,
      "还": 6372,
      "这": 6373,
      "进": 6374,
      "远": 6375,
      "连": 6376,
      "迟": 6377,
      "迥": 6378,
      "迦": 6379,
      "迪": 6380,
      "迫": 6381,
      "迭": 6382,
      "述": 6383,
      "迴": 6384,
      "迷": 6385,
      "迹": 6386,
      "追": 6387,
      "退": 6388,
      "送": 6389,
      "适": 6390,
      "逃": 6391,
      "逆": 6392,
      "选": 6393,
      "逊": 6394,
      "透": 6395,
      "逐": 6396,
      "這": 6397,
      "通": 6398,
      "逛": 6399,
      "逝": 6400,
      "速": 6401,
      "造": 6402,
      "逢": 6403,
      "連": 6404,
      "逮": 6405,
      "週": 6406,
      "進": 6407,
      "逸": 6408,
      "遁": 6409,
      "遇": 6410,
      "遊": 6411,
      "運": 6412,
      "遍": 6413,
      "過": 6414,
      "道": 6415,
      "達": 6416,
      "違": 6417,
      "遗": 6418,
      "遠": 6419,
      "遣": 6420,
      "遥": 6421,
      "適": 6422,
      "遮": 6423,
      "遲": 6424,
      "遵": 6425,
      "遷": 6426,
      "選": 6427,
      "遺": 6428,
      "避": 6429,
      "還": 6430,
      "邆": 6431,
      "邇": 6432,
      "邊": 6433,
      "邏": 6434,
      "邑": 6435,
      "邓": 6436,
      "邕": 6437,
      "邘": 6438,
      "那": 6439,
      "邦": 6440,
      "邪": 6441,
      "邮": 6442,
      "邯": 6443,
      "邵": 6444,
      "邸": 6445,
      "郎": 6446,
      "郑": 6447,
      "郓": 6448,
      "郝": 6449,
      "郞": 6450,
      "郡": 6451,
      "郢": 6452,
      "部": 6453,
      "郭": 6454,
      "郵": 6455,
      "郷": 6456,
      "郸": 6457,
      "都": 6458,
      "鄂": 6459,
      "鄉": 6460,
      "鄒": 6461,
      "鄕": 6462,
      "鄙": 6463,
      "鄧": 6464,
      "鄭": 6465,
      "鄯": 6466,
      "配": 6467,
      "酒": 6468,
      "酥": 6469,
      "酱": 6470,
      "酷": 6471,
      "酸": 6472,
      "醉": 6473,
      "醒": 6474,
      "醫": 6475,
      "采": 6476,
      "釈": 6477,
      "释": 6478,
      "釋": 6479,
      "里": 6480,
      "重": 6481,
      "野": 6482,
      "量": 6483,
      "釐": 6484,
      "金": 6485,
      "釘": 6486,
      "釜": 6487,
      "針": 6488,
      "鈞": 6489,
      "鈴": 6490,
      "鈸": 6491,
      "鉄": 6492,
      "鉛": 6493,
      "鉱": 6494,
      "鉴": 6495,
      "銀": 6496,
      "銃": 6497,
      "銅": 6498,
      "銬": 6499,
      "銭": 6500,
      "銮": 6501,
      "鋼": 6502,
      "錄": 6503,
      "錚": 6504,
      "錠": 6505,
      "錢": 6506,
      "錤": 6507,
      "錦": 6508,
      "錫": 6509,
      "錯": 6510,
      "録": 6511,
      "鍋": 6512,
      "鍔": 6513,
      "鍮": 6514,
      "鍱": 6515,
      "鍵": 6516,
      "鍾": 6517,
      "鎌": 6518,
      "鎏": 6519,
      "鎖": 6520,
      "鎞": 6521,
      "鎧": 6522,
      "鎭": 6523,
      "鎮": 6524,
      "鏡": 6525,
      "鐔": 6526,
      "鐘": 6527,
      "鐵": 6528,
      "鐸": 6529,
      "鑑": 6530,
      "鑒": 6531,
      "鑼": 6532,
      "鑾": 6533,
      "针": 6534,
      "钞": 6535,
      "钟": 6536,
      "钢": 6537,
      "钦": 6538,
      "钧": 6539,
      "钩": 6540,
      "钱": 6541,
      "钺": 6542,
      "铁": 6543,
      "铜": 6544,
      "铭": 6545,
      "铲": 6546,
      "铳": 6547,
      "银": 6548,
      "链": 6549,
      "销": 6550,
      "锁": 6551,
      "锋": 6552,
      "错": 6553,
      "锚": 6554,
      "锡": 6555,
      "锣": 6556,
      "锦": 6557,
      "锵": 6558,
      "锷": 6559,
      "锻": 6560,
      "镇": 6561,
      "镖": 6562,
      "镜": 6563,
      "長": 6564,
      "长": 6565,
      "門": 6566,
      "閃": 6567,
      "閉": 6568,
      "開": 6569,
      "閎": 6570,
      "閑": 6571,
      "間": 6572,
      "閔": 6573,
      "関": 6574,
      "閣": 6575,
      "閥": 6576,
      "閩": 6577,
      "闇": 6578,
      "闕": 6579,
      "闖": 6580,
      "闘": 6581,
      "關": 6582,
      "闞": 6583,
      "闡": 6584,
      "门": 6585,
      "闪": 6586,
      "问": 6587,
      "闯": 6588,
      "间": 6589,
      "闵": 6590,
      "闸": 6591,
      "闻": 6592,
      "闽": 6593,
      "阀": 6594,
      "阅": 6595,
      "阇": 6596,
      "阜": 6597,
      "阝": 6598,
      "队": 6599,
      "阪": 6600,
      "阮": 6601,
      "防": 6602,
      "阳": 6603,
      "阴": 6604,
      "阿": 6605,
      "陀": 6606,
      "附": 6607,
      "际": 6608,
      "陆": 6609,
      "陈": 6610,
      "降": 6611,
      "限": 6612,
      "陕": 6613,
      "院": 6614,
      "陣": 6615,
      "除": 6616,
      "险": 6617,
      "陰": 6618,
      "陳": 6619,
      "陵": 6620,
      "陶": 6621,
      "陷": 6622,
      "陸": 6623,
      "険": 6624,
      "陽": 6625,
      "隅": 6626,
      "隆": 6627,
      "隊": 6628,
      "階": 6629,
      "随": 6630,
      "隐": 6631,
      "際": 6632,
      "障": 6633,
      "隠": 6634,
      "隣": 6635,
      "隨": 6636,
      "險": 6637,
      "隱": 6638,
      "隶": 6639,
      "隸": 6640,
      "隼": 6641,
      "难": 6642,
      "雀": 6643,
      "雁": 6644,
      "雄": 6645,
      "雅": 6646,
      "集": 6647,
      "雍": 6648,
      "雑": 6649,
      "雒": 6650,
      "雖": 6651,
      "雙": 6652,
      "雜": 6653,
      "離": 6654,
      "難": 6655,
      "雨": 6656,
      "雪": 6657,
      "雲": 6658,
      "零": 6659,
      "雷": 6660,
      "電": 6661,
      "雾": 6662,
      "需": 6663,
      "霄": 6664,
      "霆": 6665,
      "震": 6666,
      "霊": 6667,
      "霍": 6668,
      "霏": 6669,
      "霖": 6670,
      "霞": 6671,
      "霧": 6672,
      "露": 6673,
      "霸": 6674,
      "靈": 6675,
      "靑": 6676,
      "青": 6677,
      "靖": 6678,
      "静": 6679,
      "靜": 6680,
      "非": 6681,
      "靠": 6682,
      "面": 6683,
      "革": 6684,
      "靭": 6685,
      "靴": 6686,
      "鞅": 6687,
      "鞍": 6688,
      "鞭": 6689,
      "韋": 6690,
      "韓": 6691,
      "韦": 6692,
      "韩": 6693,
      "音": 6694,
      "韵": 6695,
      "韶": 6696,
      "韻": 6697,
      "響": 6698,
      "頁": 6699,
      "頂": 6700,
      "項": 6701,
      "順": 6702,
      "須": 6703,
      "頊": 6704,
      "頌": 6705,
      "預": 6706,
      "頑": 6707,
      "頓": 6708,
      "領": 6709,
      "頤": 6710,
      "頭": 6711,
      "頹": 6712,
      "頼": 6713,
      "頽": 6714,
      "題": 6715,
      "顏": 6716,
      "顓": 6717,
      "顔": 6718,
      "顕": 6719,
      "顗": 6720,
      "願": 6721,
      "類": 6722,
      "顥": 6723,
      "顧": 6724,
      "顯": 6725,
      "页": 6726,
      "顶": 6727,
      "项": 6728,
      "顺": 6729,
      "须": 6730,
      "顾": 6731,
      "颂": 6732,
      "题": 6733,
      "颜": 6734,
      "颠": 6735,
      "風": 6736,
      "颱": 6737,
      "飄": 6738,
      "风": 6739,
      "飛": 6740,
      "飞": 6741,
      "食": 6742,
      "飯": 6743,
      "飾": 6744,
      "餅": 6745,
      "養": 6746,
      "餓": 6747,
      "餘": 6748,
      "餠": 6749,
      "館": 6750,
      "饅": 6751,
      "饒": 6752,
      "饥": 6753,
      "饭": 6754,
      "饮": 6755,
      "饰": 6756,
      "饼": 6757,
      "饾": 6758,
      "饿": 6759,
      "馅": 6760,
      "馆": 6761,
      "馒": 6762,
      "首": 6763,
      "香": 6764,
      "馬": 6765,
      "馭": 6766,
      "馮": 6767,
      "馳": 6768,
      "駅": 6769,
      "駆": 6770,
      "駐": 6771,
      "駙": 6772,
      "駿": 6773,
      "騒": 6774,
      "験": 6775,
      "騫": 6776,
      "騰": 6777,
      "騷": 6778,
      "驅": 6779,
      "驚": 6780,
      "驛": 6781,
      "马": 6782,
      "驱": 6783,
      "驸": 6784,
      "驾": 6785,
      "骂": 6786,
      "骇": 6787,
      "验": 6788,
      "骑": 6789,
      "骨": 6790,
      "骸": 6791,
      "髄": 6792,
      "體": 6793,
      "高": 6794,
      "髪": 6795,
      "髭": 6796,
      "髮": 6797,
      "鬱": 6798,
      "鬻": 6799,
      "鬼": 6800,
      "魁": 6801,
      "魂": 6802,
      "魄": 6803,
      "魅": 6804,
      "魏": 6805,
      "魔": 6806,
      "魚": 6807,
      "魯": 6808,
      "鮑": 6809,
      "鮒": 6810,
      "鮓": 6811,
      "鮨": 6812,
      "鮮": 6813,
      "鯉": 6814,
      "鯊": 6815,
      "鯨": 6816,
      "鰈": 6817,
      "鰐": 6818,
      "鱲": 6819,
      "鱷": 6820,
      "鱼": 6821,
      "鲁": 6822,
      "鲍": 6823,
      "鲜": 6824,
      "鲨": 6825,
      "鳥": 6826,
      "鳧": 6827,
      "鳩": 6828,
      "鳳": 6829,
      "鳴": 6830,
      "鴎": 6831,
      "鴫": 6832,
      "鴻": 6833,
      "鴿": 6834,
      "鶚": 6835,
      "鶴": 6836,
      "鷄": 6837,
      "鷲": 6838,
      "鷹": 6839,
      "鷺": 6840,
      "鸟": 6841,
      "鸡": 6842,
      "鸯": 6843,
      "鸳": 6844,
      "鸿": 6845,
      "鹅": 6846,
      "鹊": 6847,
      "鹏": 6848,
      "鹤": 6849,
      "鹬": 6850,
      "鹰": 6851,
      "鹵": 6852,
      "鹽": 6853,
      "鹿": 6854,
      "麒": 6855,
      "麗": 6856,
      "麟": 6857,
      "麥": 6858,
      "麦": 6859,
      "麵": 6860,
      "麺": 6861,
      "麻": 6862,
      "麼": 6863,
      "黃": 6864,
      "黄": 6865,
      "黍": 6866,
      "黎": 6867,
      "黑": 6868,
      "黒": 6869,
      "默": 6870,
      "點": 6871,
      "黨": 6872,
      "黽": 6873,
      "鼎": 6874,
      "鼓": 6875,
      "鼠": 6876,
      "鼻": 6877,
      "齊": 6878,
      "齋": 6879,
      "齐": 6880,
      "齒": 6881,
      "齡": 6882,
      "齢": 6883,
      "龍": 6884,
      "龔": 6885,
      "龙": 6886,
      "龚": 6887,
      "龟": 6888,
      "ꙮ": 6889,
      "ꜛ": 6890,
      "ꜜ": 6891,
      "Ꜣ": 6892,
      "ꜣ": 6893,
      "ꜥ": 6894,
      "ꜱ": 6895,
      "꞉": 6896,
      "ꞌ": 6897,
      "ꞑ": 6898,
      "가": 6899,
      "각": 6900,
      "간": 6901,
      "감": 6902,
      "갑": 6903,
      "값": 6904,
      "갓": 6905,
      "강": 6906,
      "같": 6907,
      "개": 6908,
      "객": 6909,
      "거": 6910,
      "걱": 6911,
      "건": 6912,
      "걸": 6913,
      "검": 6914,
      "것": 6915,
      "게": 6916,
      "겠": 6917,
      "겨": 6918,
      "격": 6919,
      "견": 6920,
      "결": 6921,
      "겸": 6922,
      "겹": 6923,
      "경": 6924,
      "계": 6925,
      "고": 6926,
      "곡": 6927,
      "골": 6928,
      "곱": 6929,
      "곳": 6930,
      "공": 6931,
      "과": 6932,
      "관": 6933,
      "광": 6934,
      "괘": 6935,
      "괜": 6936,
      "교": 6937,
      "구": 6938,
      "국": 6939,
      "군": 6940,
      "굳": 6941,
      "굴": 6942,
      "굿": 6943,
      "궁": 6944,
      "권": 6945,
      "궐": 6946,
      "궤": 6947,
      "귀": 6948,
      "귄": 6949,
      "규": 6950,
      "균": 6951,
      "귤": 6952,
      "그": 6953,
      "극": 6954,
      "귿": 6955,
      "글": 6956,
      "금": 6957,
      "급": 6958,
      "긍": 6959,
      "기": 6960,
      "긴": 6961,
      "길": 6962,
      "김": 6963,
      "깃": 6964,
      "깊": 6965,
      "까": 6966,
      "깨": 6967,
      "께": 6968,
      "꽃": 6969,
      "꾸": 6970,
      "꿈": 6971,
      "끄": 6972,
      "끓": 6973,
      "끔": 6974,
      "끝": 6975,
      "끼": 6976,
      "나": 6977,
      "난": 6978,
      "날": 6979,
      "남": 6980,
      "납": 6981,
      "났": 6982,
      "내": 6983,
      "낸": 6984,
      "냉": 6985,
      "냥": 6986,
      "너": 6987,
      "넉": 6988,
      "넌": 6989,
      "널": 6990,
      "넓": 6991,
      "넘": 6992,
      "넙": 6993,
      "넝": 6994,
      "네": 6995,
      "녀": 6996,
      "년": 6997,
      "녕": 6998,
      "노": 6999,
      "녹": 7000,
      "논": 7001,
      "놀": 7002,
      "놈": 7003,
      "농": 7004,
      "높": 7005,
      "뇩": 7006,
      "누": 7007,
      "눈": 7008,
      "뉴": 7009,
      "느": 7010,
      "는": 7011,
      "늘": 7012,
      "능": 7013,
      "니": 7014,
      "닉": 7015,
      "닌": 7016,
      "님": 7017,
      "닝": 7018,
      "닢": 7019,
      "다": 7020,
      "닥": 7021,
      "단": 7022,
      "달": 7023,
      "닭": 7024,
      "담": 7025,
      "답": 7026,
      "당": 7027,
      "대": 7028,
      "댄": 7029,
      "댕": 7030,
      "댸": 7031,
      "더": 7032,
      "덕": 7033,
      "던": 7034,
      "덩": 7035,
      "데": 7036,
      "덱": 7037,
      "뎌": 7038,
      "도": 7039,
      "독": 7040,
      "돌": 7041,
      "동": 7042,
      "되": 7043,
      "된": 7044,
      "될": 7045,
      "두": 7046,
      "둑": 7047,
      "둔": 7048,
      "둘": 7049,
      "둥": 7050,
      "둻": 7051,
      "뒤": 7052,
      "듀": 7053,
      "드": 7054,
      "든": 7055,
      "들": 7056,
      "등": 7057,
      "디": 7058,
      "딧": 7059,
      "딩": 7060,
      "따": 7061,
      "딴": 7062,
      "딸": 7063,
      "때": 7064,
      "떠": 7065,
      "떤": 7066,
      "떴": 7067,
      "떻": 7068,
      "떼": 7069,
      "또": 7070,
      "똑": 7071,
      "뚝": 7072,
      "뚱": 7073,
      "뜻": 7074,
      "라": 7075,
      "란": 7076,
      "람": 7077,
      "랍": 7078,
      "랑": 7079,
      "래": 7080,
      "랙": 7081,
      "랜": 7082,
      "랩": 7083,
      "랬": 7084,
      "량": 7085,
      "러": 7086,
      "럭": 7087,
      "런": 7088,
      "럼": 7089,
      "럽": 7090,
      "렇": 7091,
      "레": 7092,
      "렉": 7093,
      "렌": 7094,
      "렐": 7095,
      "려": 7096,
      "력": 7097,
      "련": 7098,
      "렸": 7099,
      "령": 7100,
      "례": 7101,
      "로": 7102,
      "록": 7103,
      "론": 7104,
      "롯": 7105,
      "뢰": 7106,
      "료": 7107,
      "룡": 7108,
      "루": 7109,
      "룸": 7110,
      "류": 7111,
      "륜": 7112,
      "륨": 7113,
      "르": 7114,
      "른": 7115,
      "를": 7116,
      "름": 7117,
      "릉": 7118,
      "리": 7119,
      "릭": 7120,
      "린": 7121,
      "림": 7122,
      "립": 7123,
      "릿": 7124,
      "링": 7125,
      "마": 7126,
      "막": 7127,
      "만": 7128,
      "많": 7129,
      "말": 7130,
      "맘": 7131,
      "맛": 7132,
      "망": 7133,
      "맞": 7134,
      "매": 7135,
      "맨": 7136,
      "맹": 7137,
      "먁": 7138,
      "머": 7139,
      "먹": 7140,
      "먼": 7141,
      "멋": 7142,
      "멍": 7143,
      "메": 7144,
      "멜": 7145,
      "며": 7146,
      "면": 7147,
      "명": 7148,
      "몇": 7149,
      "모": 7150,
      "목": 7151,
      "몰": 7152,
      "못": 7153,
      "몽": 7154,
      "무": 7155,
      "문": 7156,
      "물": 7157,
      "뭐": 7158,
      "뮤": 7159,
      "미": 7160,
      "민": 7161,
      "믿": 7162,
      "밀": 7163,
      "밉": 7164,
      "밍": 7165,
      "바": 7166,
      "박": 7167,
      "밖": 7168,
      "반": 7169,
      "받": 7170,
      "발": 7171,
      "밤": 7172,
      "밥": 7173,
      "방": 7174,
      "배": 7175,
      "백": 7176,
      "뱀": 7177,
      "뱅": 7178,
      "버": 7179,
      "번": 7180,
      "벌": 7181,
      "범": 7182,
      "법": 7183,
      "벗": 7184,
      "베": 7185,
      "벽": 7186,
      "변": 7187,
      "별": 7188,
      "병": 7189,
      "보": 7190,
      "복": 7191,
      "볶": 7192,
      "본": 7193,
      "볼": 7194,
      "봄": 7195,
      "봐": 7196,
      "부": 7197,
      "북": 7198,
      "분": 7199,
      "불": 7200,
      "뷰": 7201,
      "브": 7202,
      "븐": 7203,
      "블": 7204,
      "비": 7205,
      "빅": 7206,
      "빈": 7207,
      "빔": 7208,
      "빛": 7209,
      "빠": 7210,
      "빨": 7211,
      "빵": 7212,
      "뻐": 7213,
      "뻤": 7214,
      "뽕": 7215,
      "뿌": 7216,
      "뿐": 7217,
      "쁘": 7218,
      "쁜": 7219,
      "사": 7220,
      "삭": 7221,
      "산": 7222,
      "살": 7223,
      "삼": 7224,
      "삽": 7225,
      "상": 7226,
      "새": 7227,
      "색": 7228,
      "생": 7229,
      "샤": 7230,
      "샴": 7231,
      "서": 7232,
      "석": 7233,
      "선": 7234,
      "설": 7235,
      "섬": 7236,
      "섭": 7237,
      "섯": 7238,
      "성": 7239,
      "섶": 7240,
      "세": 7241,
      "셋": 7242,
      "셔": 7243,
      "션": 7244,
      "셜": 7245,
      "소": 7246,
      "속": 7247,
      "손": 7248,
      "솔": 7249,
      "송": 7250,
      "솥": 7251,
      "쇄": 7252,
      "쇼": 7253,
      "수": 7254,
      "숙": 7255,
      "순": 7256,
      "술": 7257,
      "숨": 7258,
      "쉬": 7259,
      "슈": 7260,
      "스": 7261,
      "슨": 7262,
      "슬": 7263,
      "슴": 7264,
      "습": 7265,
      "승": 7266,
      "시": 7267,
      "식": 7268,
      "신": 7269,
      "실": 7270,
      "싫": 7271,
      "심": 7272,
      "십": 7273,
      "싱": 7274,
      "싶": 7275,
      "싹": 7276,
      "쌍": 7277,
      "써": 7278,
      "썸": 7279,
      "쓰": 7280,
      "씨": 7281,
      "씬": 7282,
      "아": 7283,
      "악": 7284,
      "안": 7285,
      "않": 7286,
      "알": 7287,
      "앓": 7288,
      "암": 7289,
      "압": 7290,
      "았": 7291,
      "앙": 7292,
      "앞": 7293,
      "앟": 7294,
      "애": 7295,
      "액": 7296,
      "앤": 7297,
      "앵": 7298,
      "야": 7299,
      "약": 7300,
      "양": 7301,
      "얘": 7302,
      "어": 7303,
      "억": 7304,
      "언": 7305,
      "얼": 7306,
      "엄": 7307,
      "업": 7308,
      "없": 7309,
      "엇": 7310,
      "었": 7311,
      "엉": 7312,
      "엌": 7313,
      "에": 7314,
      "엑": 7315,
      "엔": 7316,
      "엠": 7317,
      "엣": 7318,
      "여": 7319,
      "역": 7320,
      "연": 7321,
      "열": 7322,
      "염": 7323,
      "엽": 7324,
      "였": 7325,
      "영": 7326,
      "예": 7327,
      "옛": 7328,
      "오": 7329,
      "옥": 7330,
      "온": 7331,
      "올": 7332,
      "옵": 7333,
      "옷": 7334,
      "와": 7335,
      "완": 7336,
      "왈": 7337,
      "왔": 7338,
      "왕": 7339,
      "왜": 7340,
      "외": 7341,
      "요": 7342,
      "용": 7343,
      "우": 7344,
      "욱": 7345,
      "운": 7346,
      "울": 7347,
      "움": 7348,
      "웃": 7349,
      "워": 7350,
      "원": 7351,
      "월": 7352,
      "웨": 7353,
      "위": 7354,
      "윅": 7355,
      "유": 7356,
      "육": 7357,
      "윤": 7358,
      "율": 7359,
      "으": 7360,
      "윽": 7361,
      "은": 7362,
      "읃": 7363,
      "을": 7364,
      "음": 7365,
      "읍": 7366,
      "읏": 7367,
      "읒": 7368,
      "의": 7369,
      "이": 7370,
      "익": 7371,
      "인": 7372,
      "일": 7373,
      "임": 7374,
      "입": 7375,
      "있": 7376,
      "잎": 7377,
      "자": 7378,
      "작": 7379,
      "잔": 7380,
      "잖": 7381,
      "잘": 7382,
      "잠": 7383,
      "잡": 7384,
      "장": 7385,
      "재": 7386,
      "쟁": 7387,
      "저": 7388,
      "적": 7389,
      "전": 7390,
      "절": 7391,
      "점": 7392,
      "접": 7393,
      "정": 7394,
      "제": 7395,
      "젝": 7396,
      "젠": 7397,
      "져": 7398,
      "조": 7399,
      "족": 7400,
      "종": 7401,
      "좋": 7402,
      "좌": 7403,
      "죄": 7404,
      "죠": 7405,
      "주": 7406,
      "준": 7407,
      "줄": 7408,
      "줍": 7409,
      "중": 7410,
      "줘": 7411,
      "쥐": 7412,
      "쥠": 7413,
      "즈": 7414,
      "즌": 7415,
      "지": 7416,
      "직": 7417,
      "진": 7418,
      "질": 7419,
      "짐": 7420,
      "집": 7421,
      "짜": 7422,
      "짠": 7423,
      "짧": 7424,
      "째": 7425,
      "쪽": 7426,
      "쯦": 7427,
      "찌": 7428,
      "찐": 7429,
      "차": 7430,
      "찬": 7431,
      "찮": 7432,
      "참": 7433,
      "창": 7434,
      "찾": 7435,
      "채": 7436,
      "책": 7437,
      "처": 7438,
      "천": 7439,
      "철": 7440,
      "첩": 7441,
      "첫": 7442,
      "청": 7443,
      "체": 7444,
      "첼": 7445,
      "쳐": 7446,
      "쳤": 7447,
      "쳰": 7448,
      "초": 7449,
      "총": 7450,
      "촣": 7451,
      "최": 7452,
      "추": 7453,
      "축": 7454,
      "춘": 7455,
      "출": 7456,
      "춤": 7457,
      "충": 7458,
      "취": 7459,
      "츠": 7460,
      "치": 7461,
      "칙": 7462,
      "친": 7463,
      "칡": 7464,
      "침": 7465,
      "카": 7466,
      "칸": 7467,
      "칼": 7468,
      "캐": 7469,
      "캔": 7470,
      "캠": 7471,
      "커": 7472,
      "컬": 7473,
      "컴": 7474,
      "케": 7475,
      "켓": 7476,
      "켜": 7477,
      "켰": 7478,
      "코": 7479,
      "콘": 7480,
      "콤": 7481,
      "콩": 7482,
      "쿠": 7483,
      "쿨": 7484,
      "쿵": 7485,
      "퀘": 7486,
      "퀴": 7487,
      "퀸": 7488,
      "크": 7489,
      "클": 7490,
      "키": 7491,
      "킥": 7492,
      "킷": 7493,
      "킹": 7494,
      "타": 7495,
      "탁": 7496,
      "탄": 7497,
      "탈": 7498,
      "탉": 7499,
      "탐": 7500,
      "탑": 7501,
      "탕": 7502,
      "태": 7503,
      "택": 7504,
      "탠": 7505,
      "탤": 7506,
      "탱": 7507,
      "터": 7508,
      "턴": 7509,
      "털": 7510,
      "텅": 7511,
      "테": 7512,
      "텔": 7513,
      "토": 7514,
      "톡": 7515,
      "톱": 7516,
      "통": 7517,
      "투": 7518,
      "퉠": 7519,
      "튭": 7520,
      "트": 7521,
      "특": 7522,
      "틀": 7523,
      "티": 7524,
      "틱": 7525,
      "팀": 7526,
      "파": 7527,
      "판": 7528,
      "팝": 7529,
      "팥": 7530,
      "패": 7531,
      "팩": 7532,
      "팬": 7533,
      "퍼": 7534,
      "펀": 7535,
      "페": 7536,
      "펫": 7537,
      "펭": 7538,
      "펴": 7539,
      "편": 7540,
      "평": 7541,
      "포": 7542,
      "폭": 7543,
      "폰": 7544,
      "폴": 7545,
      "퐁": 7546,
      "표": 7547,
      "푸": 7548,
      "풀": 7549,
      "품": 7550,
      "풋": 7551,
      "풍": 7552,
      "프": 7553,
      "픈": 7554,
      "플": 7555,
      "피": 7556,
      "픽": 7557,
      "필": 7558,
      "핑": 7559,
      "하": 7560,
      "학": 7561,
      "한": 7562,
      "할": 7563,
      "함": 7564,
      "합": 7565,
      "항": 7566,
      "해": 7567,
      "핸": 7568,
      "했": 7569,
      "행": 7570,
      "향": 7571,
      "허": 7572,
      "헌": 7573,
      "험": 7574,
      "헛": 7575,
      "헤": 7576,
      "헨": 7577,
      "헬": 7578,
      "혁": 7579,
      "현": 7580,
      "혈": 7581,
      "협": 7582,
      "형": 7583,
      "혜": 7584,
      "호": 7585,
      "혹": 7586,
      "혼": 7587,
      "홀": 7588,
      "홈": 7589,
      "홍": 7590,
      "화": 7591,
      "확": 7592,
      "환": 7593,
      "활": 7594,
      "황": 7595,
      "회": 7596,
      "효": 7597,
      "후": 7598,
      "훈": 7599,
      "휘": 7600,
      "흑": 7601,
      "흔": 7602,
      "흥": 7603,
      "희": 7604,
      "히": 7605,
      "힐": 7606,
      "힙": 7607,
      "": 7608,
      "": 7609,
      "": 7610,
      "": 7611,
      "": 7612,
      "": 7613,
      "": 7614,
      "": 7615,
      "": 7616,
      "": 7617,
      "": 7618,
      "": 7619,
      "": 7620,
      "": 7621,
      "": 7622,
      "": 7623,
      "": 7624,
      "": 7625,
      "": 7626,
      "": 7627,
      "": 7628,
      "": 7629,
      "": 7630,
      "": 7631,
      "": 7632,
      "": 7633,
      "": 7634,
      "": 7635,
      "": 7636,
      "": 7637,
      "": 7638,
      "": 7639,
      "": 7640,
      "": 7641,
      "": 7642,
      "": 7643,
      "": 7644,
      "": 7645,
      "": 7646,
      "": 7647,
      "": 7648,
      "": 7649,
      "": 7650,
      "": 7651,
      "": 7652,
      "": 7653,
      "": 7654,
      "": 7655,
      "": 7656,
      "": 7657,
      "": 7658,
      "": 7659,
      "": 7660,
      "": 7661,
      "": 7662,
      "": 7663,
      "": 7664,
      "": 7665,
      "": 7666,
      "": 7667,
      "": 7668,
      "": 7669,
      "": 7670,
      "": 7671,
      "": 7672,
      "": 7673,
      "": 7674,
      "": 7675,
      "": 7676,
      "": 7677,
      "": 7678,
      "": 7679,
      "": 7680,
      "": 7681,
      "": 7682,
      "": 7683,
      "": 7684,
      "": 7685,
      "": 7686,
      "": 7687,
      "": 7688,
      "": 7689,
      "": 7690,
      "": 7691,
      "": 7692,
      "": 7693,
      "": 7694,
      "": 7695,
      "": 7696,
      "": 7697,
      "": 7698,
      "": 7699,
      "": 7700,
      "": 7701,
      "": 7702,
      "": 7703,
      "": 7704,
      "": 7705,
      "": 7706,
      "": 7707,
      "": 7708,
      "": 7709,
      "": 7710,
      "": 7711,
      "": 7712,
      "": 7713,
      "": 7714,
      "": 7715,
      "": 7716,
      "": 7717,
      "": 7718,
      "": 7719,
      "": 7720,
      "": 7721,
      "": 7722,
      "": 7723,
      "": 7724,
      "": 7725,
      "": 7726,
      "": 7727,
      "": 7728,
      "": 7729,
      "": 7730,
      "": 7731,
      "": 7732,
      "": 7733,
      "": 7734,
      "": 7735,
      "": 7736,
      "": 7737,
      "": 7738,
      "": 7739,
      "": 7740,
      "": 7741,
      "": 7742,
      "": 7743,
      "": 7744,
      "": 7745,
      "": 7746,
      "": 7747,
      "": 7748,
      "": 7749,
      "": 7750,
      "": 7751,
      "": 7752,
      "": 7753,
      "": 7754,
      "": 7755,
      "": 7756,
      "": 7757,
      "": 7758,
      "": 7759,
      "": 7760,
      "": 7761,
      "": 7762,
      "": 7763,
      "": 7764,
      "": 7765,
      "": 7766,
      "": 7767,
      "": 7768,
      "": 7769,
      "": 7770,
      "": 7771,
      "": 7772,
      "": 7773,
      "": 7774,
      "": 7775,
      "": 7776,
      "": 7777,
      "": 7778,
      "": 7779,
      "": 7780,
      "": 7781,
      "": 7782,
      "": 7783,
      "": 7784,
      "": 7785,
      "": 7786,
      "": 7787,
      "": 7788,
      "": 7789,
      "": 7790,
      "": 7791,
      "": 7792,
      "": 7793,
      "": 7794,
      "": 7795,
      "": 7796,
      "": 7797,
      "": 7798,
      "": 7799,
      "": 7800,
      "": 7801,
      "": 7802,
      "": 7803,
      "": 7804,
      "": 7805,
      "": 7806,
      "": 7807,
      "": 7808,
      "": 7809,
      "": 7810,
      "﨑": 7811,
      "﴾": 7812,
      "﴿": 7813,
      "︎": 7814,
      "️": 7815,
      "︠": 7816,
      "︡": 7817,
      "﻿": 7818,
      "＀": 7819,
      "￼": 7820,
      "�": 7821,
      "𐌄": 7822,
      "𐌅": 7823,
      "𐌆": 7824,
      "𐌈": 7825,
      "𐌋": 7826,
      "𐌌": 7827,
      "𐌍": 7828,
      "𐌎": 7829,
      "𐌑": 7830,
      "𐌔": 7831,
      "𐌖": 7832,
      "𐌙": 7833,
      "𐌟": 7834,
      "𐌠": 7835,
      "𐌡": 7836,
      "𐌢": 7837,
      "𐌣": 7838,
      "𐌰": 7839,
      "𐌱": 7840,
      "𐌲": 7841,
      "𐌳": 7842,
      "𐌴": 7843,
      "𐌶": 7844,
      "𐌷": 7845,
      "𐌸": 7846,
      "𐌹": 7847,
      "𐌺": 7848,
      "𐌻": 7849,
      "𐌼": 7850,
      "𐌽": 7851,
      "𐌾": 7852,
      "𐌿": 7853,
      "𐍀": 7854,
      "𐍂": 7855,
      "𐍃": 7856,
      "𐍄": 7857,
      "𐍅": 7858,
      "𐍆": 7859,
      "𐍉": 7860,
      "𐎠": 7861,
      "𐎡": 7862,
      "𐎢": 7863,
      "𐎣": 7864,
      "𐎤": 7865,
      "𐎫": 7866,
      "𐎰": 7867,
      "𐎱": 7868,
      "𐎴": 7869,
      "𐎵": 7870,
      "𐎶": 7871,
      "𐎹": 7872,
      "𐎺": 7873,
      "𐎼": 7874,
      "𐏁": 7875,
      "𐏃": 7876,
      "𐤀": 7877,
      "𐤁": 7878,
      "𐤂": 7879,
      "𐤃": 7880,
      "𐤄": 7881,
      "𐤅": 7882,
      "𐤇": 7883,
      "𐤉": 7884,
      "𐤍": 7885,
      "𐤒": 7886,
      "𐤓": 7887,
      "𐤔": 7888,
      "𐤕": 7889,
      "𐨣": 7890,
      "𐨤": 7891,
      "𐨱": 7892,
      "𐭀": 7893,
      "𐭂": 7894,
      "𐭅": 7895,
      "𐭊": 7896,
      "𐭋": 7897,
      "𐭍": 7898,
      "𐭐": 7899,
      "𐭓": 7900,
      "𐭔": 7901,
      "𐭕": 7902,
      "𐭠": 7903,
      "𐭡": 7904,
      "𐭥": 7905,
      "𐭫": 7906,
      "𐭭": 7907,
      "𐭮": 7908,
      "𐭯": 7909,
      "𐭰": 7910,
      "𐰇": 7911,
      "𐰛": 7912,
      "𐰜": 7913,
      "𐰰": 7914,
      "𐰼": 7915,
      "𐱅": 7916,
      "𑀓": 7917,
      "𑀬": 7918,
      "𑀲": 7919,
      "𑁆": 7920,
      "𒀊": 7921,
      "𒀕": 7922,
      "𒀭": 7923,
      "𒂂": 7924,
      "𒂍": 7925,
      "𒄖": 7926,
      "𒄷": 7927,
      "𒅍": 7928,
      "𒅎": 7929,
      "𒆠": 7930,
      "𒆷": 7931,
      "𒈠": 7932,
      "𒉣": 7933,
      "𒊕": 7934,
      "𒋀": 7935,
      "𒋾": 7936,
      "𒌅": 7937,
      "𒌝": 7938,
      "𒌷": 7939,
      "𓀨": 7940,
      "𓂋": 7941,
      "𓂝": 7942,
      "𓃵": 7943,
      "𓄿": 7944,
      "𓈉": 7945,
      "𓈗": 7946,
      "𓈙": 7947,
      "𓊖": 7948,
      "𓎡": 7949,
      "𓏏": 7950,
      "𓏤": 7951,
      "𝄆": 7952,
      "𝄇": 7953,
      "🃏": 7954,
      "🆕": 7955,
      "🇦": 7956,
      "🇧": 7957,
      "🇨": 7958,
      "🇩": 7959,
      "🇪": 7960,
      "🇫": 7961,
      "🇬": 7962,
      "🇭": 7963,
      "🇮": 7964,
      "🇰": 7965,
      "🇱": 7966,
      "🇲": 7967,
      "🇳": 7968,
      "🇴": 7969,
      "🇵": 7970,
      "🇶": 7971,
      "🇷": 7972,
      "🇸": 7973,
      "🇹": 7974,
      "🇺": 7975,
      "🇻": 7976,
      "🇽": 7977,
      "🇿": 7978,
      "🌀": 7979,
      "🌄": 7980,
      "🌅": 7981,
      "🌆": 7982,
      "🌇": 7983,
      "🌈": 7984,
      "🌊": 7985,
      "🌋": 7986,
      "🌍": 7987,
      "🌎": 7988,
      "🌏": 7989,
      "🌐": 7990,
      "🌕": 7991,
      "🌙": 7992,
      "🌚": 7993,
      "🌛": 7994,
      "🌞": 7995,
      "🌟": 7996,
      "🌠": 7997,
      "🌡": 7998,
      "🌥": 7999,
      "🌧": 8000,
      "🌪": 8001,
      "🌫": 8002,
      "🌬": 8003,
      "🌮": 8004,
      "🌱": 8005,
      "🌲": 8006,
      "🌳": 8007,
      "🌴": 8008,
      "🌵": 8009,
      "🌷": 8010,
      "🌸": 8011,
      "🌹": 8012,
      "🌺": 8013,
      "🌻": 8014,
      "🌼": 8015,
      "🌽": 8016,
      "🌿": 8017,
      "🍀": 8018,
      "🍃": 8019,
      "🍄": 8020,
      "🍇": 8021,
      "🍉": 8022,
      "🍊": 8023,
      "🍋": 8024,
      "🍌": 8025,
      "🍍": 8026,
      "🍎": 8027,
      "🍏": 8028,
      "🍐": 8029,
      "🍒": 8030,
      "🍓": 8031,
      "🍔": 8032,
      "🍕": 8033,
      "🍗": 8034,
      "🍞": 8035,
      "🍟": 8036,
      "🍤": 8037,
      "🍦": 8038,
      "🍩": 8039,
      "🍪": 8040,
      "🍫": 8041,
      "🍬": 8042,
      "🍭": 8043,
      "🍮": 8044,
      "🍰": 8045,
      "🍲": 8046,
      "🍳": 8047,
      "🍴": 8048,
      "🍵": 8049,
      "🍷": 8050,
      "🍸": 8051,
      "🍾": 8052,
      "🍿": 8053,
      "🎁": 8054,
      "🎂": 8055,
      "🎃": 8056,
      "🎄": 8057,
      "🎇": 8058,
      "🎈": 8059,
      "🎉": 8060,
      "🎊": 8061,
      "🎎": 8062,
      "🎏": 8063,
      "🎓": 8064,
      "🎟": 8065,
      "🎢": 8066,
      "🎤": 8067,
      "🎥": 8068,
      "🎨": 8069,
      "🎩": 8070,
      "🎬": 8071,
      "🎭": 8072,
      "🎮": 8073,
      "🎯": 8074,
      "🎲": 8075,
      "🎵": 8076,
      "🎶": 8077,
      "🎸": 8078,
      "🏀": 8079,
      "🏄": 8080,
      "🏅": 8081,
      "🏆": 8082,
      "🏈": 8083,
      "🏉": 8084,
      "🏊": 8085,
      "🏍": 8086,
      "🏔": 8087,
      "🏖": 8088,
      "🏗": 8089,
      "🏙": 8090,
      "🏜": 8091,
      "🏞": 8092,
      "🏟": 8093,
      "🏠": 8094,
      "🏡": 8095,
      "🏫": 8096,
      "🏭": 8097,
      "🏰": 8098,
      "🏳": 8099,
      "🏴": 8100,
      "🏷": 8101,
      "🏹": 8102,
      "🏻": 8103,
      "🏼": 8104,
      "🏽": 8105,
      "🏾": 8106,
      "🏿": 8107,
      "🐀": 8108,
      "🐄": 8109,
      "🐇": 8110,
      "🐉": 8111,
      "🐋": 8112,
      "🐍": 8113,
      "🐐": 8114,
      "🐒": 8115,
      "🐔": 8116,
      "🐗": 8117,
      "🐙": 8118,
      "🐚": 8119,
      "🐝": 8120,
      "🐠": 8121,
      "🐢": 8122,
      "🐣": 8123,
      "🐦": 8124,
      "🐧": 8125,
      "🐨": 8126,
      "🐪": 8127,
      "🐫": 8128,
      "🐭": 8129,
      "🐰": 8130,
      "🐱": 8131,
      "🐳": 8132,
      "🐴": 8133,
      "🐶": 8134,
      "🐷": 8135,
      "🐺": 8136,
      "🐾": 8137,
      "👀": 8138,
      "👇": 8139,
      "👉": 8140,
      "👊": 8141,
      "👋": 8142,
      "👌": 8143,
      "👍": 8144,
      "👎": 8145,
      "👏": 8146,
      "👑": 8147,
      "👓": 8148,
      "👙": 8149,
      "👟": 8150,
      "👠": 8151,
      "👣": 8152,
      "👤": 8153,
      "👦": 8154,
      "👧": 8155,
      "👨": 8156,
      "👩": 8157,
      "👫": 8158,
      "👶": 8159,
      "👹": 8160,
      "👽": 8161,
      "👾": 8162,
      "💀": 8163,
      "💁": 8164,
      "💃": 8165,
      "💄": 8166,
      "💇": 8167,
      "💊": 8168,
      "💌": 8169,
      "💎": 8170,
      "💓": 8171,
      "💔": 8172,
      "💕": 8173,
      "💖": 8174,
      "💗": 8175,
      "💘": 8176,
      "💙": 8177,
      "💚": 8178,
      "💛": 8179,
      "💜": 8180,
      "💝": 8181,
      "💞": 8182,
      "💡": 8183,
      "💢": 8184,
      "💣": 8185,
      "💥": 8186,
      "💦": 8187,
      "💧": 8188,
      "💨": 8189,
      "💩": 8190,
      "💪": 8191,
      "💫": 8192,
      "💭": 8193,
      "💯": 8194,
      "💰": 8195,
      "💳": 8196,
      "💶": 8197,
      "💸": 8198,
      "💻": 8199,
      "💿": 8200,
      "📄": 8201,
      "📅": 8202,
      "📆": 8203,
      "📈": 8204,
      "📉": 8205,
      "📊": 8206,
      "📋": 8207,
      "📌": 8208,
      "📍": 8209,
      "📏": 8210,
      "📐": 8211,
      "📒": 8212,
      "📕": 8213,
      "📖": 8214,
      "📗": 8215,
      "📘": 8216,
      "📙": 8217,
      "📚": 8218,
      "📝": 8219,
      "📡": 8220,
      "📣": 8221,
      "📦": 8222,
      "📰": 8223,
      "📱": 8224,
      "📲": 8225,
      "📵": 8226,
      "📷": 8227,
      "📸": 8228,
      "📹": 8229,
      "📺": 8230,
      "📽": 8231,
      "🔁": 8232,
      "🔄": 8233,
      "🔈": 8234,
      "🔋": 8235,
      "🔍": 8236,
      "🔎": 8237,
      "🔑": 8238,
      "🔒": 8239,
      "🔔": 8240,
      "🔖": 8241,
      "🔗": 8242,
      "🔙": 8243,
      "🔜": 8244,
      "🔢": 8245,
      "🔥": 8246,
      "🔧": 8247,
      "🔪": 8248,
      "🔬": 8249,
      "🔭": 8250,
      "🔮": 8251,
      "🔲": 8252,
      "🔴": 8253,
      "🔵": 8254,
      "🔸": 8255,
      "🔹": 8256,
      "🔺": 8257,
      "🔻": 8258,
      "🔼": 8259,
      "🕊": 8260,
      "🕑": 8261,
      "🕚": 8262,
      "🕰": 8263,
      "🕵": 8264,
      "🕷": 8265,
      "🕸": 8266,
      "🖌": 8267,
      "🖐": 8268,
      "🖖": 8269,
      "🖤": 8270,
      "🖼": 8271,
      "🗑": 8272,
      "🗓": 8273,
      "🗣": 8274,
      "🗳": 8275,
      "🗸": 8276,
      "🗺": 8277,
      "🗿": 8278,
      "😀": 8279,
      "😁": 8280,
      "😂": 8281,
      "😃": 8282,
      "😄": 8283,
      "😅": 8284,
      "😆": 8285,
      "😇": 8286,
      "😈": 8287,
      "😉": 8288,
      "😊": 8289,
      "😋": 8290,
      "😌": 8291,
      "😍": 8292,
      "😎": 8293,
      "😏": 8294,
      "😐": 8295,
      "😑": 8296,
      "😒": 8297,
      "😓": 8298,
      "😔": 8299,
      "😘": 8300,
      "😛": 8301,
      "😜": 8302,
      "😝": 8303,
      "😞": 8304,
      "😡": 8305,
      "😢": 8306,
      "😤": 8307,
      "😥": 8308,
      "😨": 8309,
      "😩": 8310,
      "😪": 8311,
      "😫": 8312,
      "😬": 8313,
      "😭": 8314,
      "😮": 8315,
      "😯": 8316,
      "😱": 8317,
      "😲": 8318,
      "😳": 8319,
      "😴": 8320,
      "😵": 8321,
      "😷": 8322,
      "😺": 8323,
      "😼": 8324,
      "🙀": 8325,
      "🙁": 8326,
      "🙂": 8327,
      "🙃": 8328,
      "🙄": 8329,
      "🙇": 8330,
      "🙈": 8331,
      "🙊": 8332,
      "🙋": 8333,
      "🙌": 8334,
      "🙏": 8335,
      "🚀": 8336,
      "🚂": 8337,
      "🚈": 8338,
      "🚌": 8339,
      "🚑": 8340,
      "🚒": 8341,
      "🚗": 8342,
      "🚢": 8343,
      "🚨": 8344,
      "🚫": 8345,
      "🚲": 8346,
      "🛁": 8347,
      "🛄": 8348,
      "🛍": 8349,
      "🛒": 8350,
      "🛠": 8351,
      "🛰": 8352,
      "🛳": 8353,
      "🛵": 8354,
      "🟢": 8355,
      "🟣": 8356,
      "🟨": 8357,
      "🡩": 8358,
      "🡫": 8359,
      "🤍": 8360,
      "🤏": 8361,
      "🤑": 8362,
      "🤒": 8363,
      "🤓": 8364,
      "🤔": 8365,
      "🤖": 8366,
      "🤗": 8367,
      "🤙": 8368,
      "🤛": 8369,
      "🤜": 8370,
      "🤝": 8371,
      "🤟": 8372,
      "🤡": 8373,
      "🤣": 8374,
      "🤦": 8375,
      "🤩": 8376,
      "🤪": 8377,
      "🤫": 8378,
      "🤯": 8379,
      "🤷": 8380,
      "🤹": 8381,
      "🤾": 8382,
      "🤿": 8383,
      "🥀": 8384,
      "🥁": 8385,
      "🥃": 8386,
      "🥇": 8387,
      "🥈": 8388,
      "🥉": 8389,
      "🥑": 8390,
      "🥙": 8391,
      "🥚": 8392,
      "🥣": 8393,
      "🥤": 8394,
      "🥧": 8395,
      "🥰": 8396,
      "🥲": 8397,
      "🥳": 8398,
      "🥴": 8399,
      "🥵": 8400,
      "🥺": 8401,
      "🦁": 8402,
      "🦃": 8403,
      "🦇": 8404,
      "🦊": 8405,
      "🦋": 8406,
      "🦸": 8407,
      "🧀": 8408,
      "🧁": 8409,
      "🧂": 8410,
      "🧐": 8411,
      "🧒": 8412,
      "🧘": 8413,
      "🧙": 8414,
      "🧚": 8415,
      "🧝": 8416,
      "🧟": 8417,
      "🧠": 8418,
      "🧡": 8419,
      "🧢": 8420,
      "🧧": 8421,
      "🧩": 8422,
      "🧪": 8423,
      "🧭": 8424,
      "🧮": 8425,
      "🧱": 8426,
      "🧲": 8427,
      "🧵": 8428,
      "🧸": 8429,
      "🧼": 8430,
      "🩺": 8431,
      "🪄": 8432,
      "🪒": 8433,
      "🪙": 8434,
      "🪝": 8435,
      "🪴": 8436,
      "🫐": 8437,
      "🫡": 8438,
      "🫶": 8439,
      "𠂇": 8440,
      "𠮚": 8441,
      "𥷕": 8442,
      "󠁢": 8443,
      "󠁥": 8444,
      "󠁧": 8445,
      "󠁬": 8446,
      "󠁮": 8447,
      "󠁳": 8448,
      "󠁷": 8449,
      "󠁿": 8450,
      "on": 8451,
      "er": 8452,
      "in": 8453,
      "en": 8454,
      "at": 8455,
      "di": 8456,
      "an": 8457,
      "re": 8458,
      "al": 8459,
      "el": 8460,
      "st": 8461,
      "ri": 8462,
      "la": 8463,
      "to": 8464,
      "ti": 8465,
      "si": 8466,
      "co": 8467,
      "he": 8468,
      "le": 8469,
      "te": 8470,
      "li": 8471,
      "ro": 8472,
      "un": 8473,
      "del": 8474,
      "ra": 8475,
      "zi": 8476,
      "ci": 8477,
      "ar": 8478,
      "or": 8479,
      "es": 8480,
      "con": 8481,
      "one": 8482,
      "ta": 8483,
      "so": 8484,
      "de": 8485,
      "se": 8486,
      "il": 8487,
      "ca": 8488,
      "per": 8489,
      "po": 8490,
      "che": 8491,
      "men": 8492,
      "lo": 8493,
      "do": 8494,
      "su": 8495,
      "ato": 8496,
      "qu": 8497,
      "ati": 8498,
      "me": 8499,
      "gi": 8500,
      "vi": 8501,
      "ma": 8502,
      "mo": 8503,
      "zione": 8504,
      "mi": 8505,
      "ch": 8506,
      "the": 8507,
      "pi": 8508,
      "da": 8509,
      "et": 8510,
      "pro": 8511,
      "no": 8512,
      "ter": 8513,
      "ing": 8514,
      "ce": 8515,
      "fi": 8516,
      "ali": 8517,
      "ale": 8518,
      "th": 8519,
      "bi": 8520,
      "va": 8521,
      "ve": 8522,
      "pre": 8523,
      "gli": 8524,
      "as": 8525,
      "tu": 8526,
      "sa": 8527,
      "oni": 8528,
      "vo": 8529,
      "nel": 8530,
      "ver": 8531,
      "za": 8532,
      "della": 8533,
      "pa": 8534,
      "est": 8535,
      "and": 8536,
      "ono": 8537,
      "com": 8538,
      "ata": 8539,
      "ere": 8540,
      "of": 8541,
      "ne": 8542,
      "ano": 8543,
      "cu": 8544,
      "tà": 8545,
      "ni": 8546,
      "du": 8547,
      "tra": 8548,
      "is": 8549,
      "for": 8550,
      "una": 8551,
      "lu": 8552,
      "sp": 8553,
      "chi": 8554,
      "ate": 8555,
      "mente": 8556,
      "ini": 8557,
      "sti": 8558,
      "all": 8559,
      "ssi": 8560,
      "mento": 8561,
      "ou": 8562,
      "tto": 8563,
      "non": 8564,
      "ha": 8565,
      "ac": 8566,
      "enti": 8567,
      "par": 8568,
      "eri": 8569,
      "im": 8570,
      "ru": 8571,
      "ent": 8572,
      "are": 8573,
      "ed": 8574,
      "20": 8575,
      "alla": 8576,
      "ggi": 8577,
      "am": 8578,
      "gu": 8579,
      "dell": 8580,
      "ine": 8581,
      "ad": 8582,
      "pri": 8583,
      "ran": 8584,
      "be": 8585,
      "tro": 8586,
      "sta": 8587,
      "sul": 8588,
      "pu": 8589,
      "ten": 8590,
      "ina": 8591,
      "zioni": 8592,
      "go": 8593,
      "dei": 8594,
      "cor": 8595,
      "sono": 8596,
      "19": 8597,
      "ente": 8598,
      "enza": 8599,
      "por": 8600,
      "ven": 8601,
      "ff": 8602,
      "man": 8603,
      "zz": 8604,
      "ess": 8605,
      "sto": 8606,
      "na": 8607,
      "era": 8608,
      "ino": 8609,
      "tre": 8610,
      "quest": 8611,
      "gen": 8612,
      "it": 8613,
      "delle": 8614,
      "pe": 8615,
      "sc": 8616,
      "ul": 8617,
      "gra": 8618,
      "tti": 8619,
      "La": 8620,
      "In": 8621,
      "ero": 8622,
      "ap": 8623,
      "can": 8624,
      "mb": 8625,
      "come": 8626,
      "tri": 8627,
      "inter": 8628,
      "più": 8629,
      "bb": 8630,
      "ces": 8631,
      "ria": 8632,
      "hi": 8633,
      "atti": 8634,
      "tan": 8635,
      "ol": 8636,
      "pres": 8637,
      "col": 8638,
      "Il": 8639,
      "ation": 8640,
      "ge": 8641,
      "io": 8642,
      "nu": 8643,
      "uni": 8644,
      "fa": 8645,
      "ur": 8646,
      "ga": 8647,
      "us": 8648,
      "tr": 8649,
      "dal": 8650,
      "bili": 8651,
      "au": 8652,
      "anti": 8653,
      "ando": 8654,
      "anno": 8655,
      "fo": 8656,
      "tta": 8657,
      "zza": 8658,
      "pr": 8659,
      "bu": 8660,
      "ai": 8661,
      "ste": 8662,
      "ly": 8663,
      "gh": 8664,
      "ss": 8665,
      "bo": 8666,
      "der": 8667,
      "ho": 8668,
      "etto": 8669,
      "anche": 8670,
      "car": 8671,
      "rio": 8672,
      "nella": 8673,
      "ene": 8674,
      "tion": 8675,
      "Co": 8676,
      "vol": 8677,
      "cre": 8678,
      "indi": 8679,
      "ment": 8680,
      "00": 8681,
      "min": 8682,
      "sione": 8683,
      "ggio": 8684,
      "val": 8685,
      "ani": 8686,
      "etti": 8687,
      "ab": 8688,
      "av": 8689,
      "quel": 8690,
      "ex": 8691,
      "that": 8692,
      "ple": 8693,
      "wi": 8694,
      "atto": 8695,
      "ele": 8696,
      "sci": 8697,
      "str": 8698,
      "gni": 8699,
      "fu": 8700,
      "ir": 8701,
      "uti": 8702,
      "fe": 8703,
      "ris": 8704,
      "ante": 8705,
      "menti": 8706,
      "zion": 8707,
      "cal": 8708,
      "ba": 8709,
      "dio": 8710,
      "pen": 8711,
      "The": 8712,
      "we": 8713,
      "stu": 8714,
      "vel": 8715,
      "Le": 8716,
      "colo": 8717,
      "dis": 8718,
      "essere": 8719,
      "cer": 8720,
      "ese": 8721,
      "gg": 8722,
      "stato": 8723,
      "ts": 8724,
      "cui": 8725,
      "tte": 8726,
      "tare": 8727,
      "cato": 8728,
      "mu": 8729,
      "tato": 8730,
      "cono": 8731,
      "ffi": 8732,
      "200": 8733,
      "amo": 8734,
      "lare": 8735,
      "gn": 8736,
      "bile": 8737,
      "spe": 8738,
      "ze": 8739,
      "ty": 8740,
      "stru": 8741,
      "gno": 8742,
      "cel": 8743,
      "with": 8744,
      "stra": 8745,
      "suo": 8746,
      "glio": 8747,
      "posi": 8748,
      "Qu": 8749,
      "pli": 8750,
      "medi": 8751,
      "qui": 8752,
      "inf": 8753,
      "parti": 8754,
      "alle": 8755,
      "tati": 8756,
      "201": 8757,
      "ser": 8758,
      "up": 8759,
      "mon": 8760,
      "id": 8761,
      "soci": 8762,
      "tem": 8763,
      "parte": 8764,
      "Al": 8765,
      "cam": 8766,
      "sia": 8767,
      "uto": 8768,
      "ori": 8769,
      "degli": 8770,
      "bbli": 8771,
      "ck": 8772,
      "An": 8773,
      "mini": 8774,
      "esso": 8775,
      "dalla": 8776,
      "atta": 8777,
      "Con": 8778,
      "anni": 8779,
      "den": 8780,
      "uno": 8781,
      "uro": 8782,
      "mat": 8783,
      "due": 8784,
      "our": 8785,
      "fer": 8786,
      "cen": 8787,
      "inci": 8788,
      "ble": 8789,
      "mer": 8790,
      "mar": 8791,
      "cri": 8792,
      "pazi": 8793,
      "contro": 8794,
      "ke": 8795,
      "nei": 8796,
      "azione": 8797,
      "logi": 8798,
      "fin": 8799,
      "Ma": 8800,
      "questo": 8801,
      "tor": 8802,
      "hanno": 8803,
      "stati": 8804,
      "fica": 8805,
      "arti": 8806,
      "segu": 8807,
      "out": 8808,
      "pubbli": 8809,
      "gio": 8810,
      "via": 8811,
      "bbe": 8812,
      "dere": 8813,
      "risp": 8814,
      "son": 8815,
      "ore": 8816,
      "op": 8817,
      "ard": 8818,
      "18": 8819,
      "sen": 8820,
      "prima": 8821,
      "clu": 8822,
      "speci": 8823,
      "vano": 8824,
      "Nel": 8825,
      "mol": 8826,
      "ssione": 8827,
      "atu": 8828,
      "by": 8829,
      "fic": 8830,
      "sua": 8831,
      "forma": 8832,
      "Re": 8833,
      "10": 8834,
      "cio": 8835,
      "mati": 8836,
      "teri": 8837,
      "wh": 8838,
      "tali": 8839,
      "oper": 8840,
      "loro": 8841,
      "ers": 8842,
      "zia": 8843,
      "que": 8844,
      "eff": 8845,
      "nell": 8846,
      "fun": 8847,
      "poli": 8848,
      "regi": 8849,
      "rac": 8850,
      "utili": 8851,
      "Se": 8852,
      "oc": 8853,
      "diff": 8854,
      "propri": 8855,
      "mor": 8856,
      "età": 8857,
      "dopo": 8858,
      "cro": 8859,
      "essa": 8860,
      "tura": 8861,
      "zio": 8862,
      "ec": 8863,
      "nuo": 8864,
      "Ro": 8865,
      "cia": 8866,
      "sco": 8867,
      "Per": 8868,
      "ted": 8869,
      "rel": 8870,
      "stata": 8871,
      "II": 8872,
      "ron": 8873,
      "rom": 8874,
      "ord": 8875,
      "dia": 8876,
      "almente": 8877,
      "lazione": 8878,
      "sse": 8879,
      "endo": 8880,
      "anto": 8881,
      "sso": 8882,
      "ass": 8883,
      "stitu": 8884,
      "dire": 8885,
      "sulla": 8886,
      "gior": 8887,
      "ave": 8888,
      "ché": 8889,
      "ito": 8890,
      "esi": 8891,
      "anza": 8892,
      "ulti": 8893,
      "use": 8894,
      "consi": 8895,
      "Th": 8896,
      "secon": 8897,
      "tazione": 8898,
      "lar": 8899,
      "ght": 8900,
      "fon": 8901,
      "dist": 8902,
      "Di": 8903,
      "tt": 8904,
      "può": 8905,
      "ppo": 8906,
      "ren": 8907,
      "ther": 8908,
      "ana": 8909,
      "bilità": 8910,
      "cellu": 8911,
      "gre": 8912,
      "alc": 8913,
      "vità": 8914,
      "ill": 8915,
      "mato": 8916,
      "pia": 8917,
      "vamente": 8918,
      "essi": 8919,
      "nelle": 8920,
      "gran": 8921,
      "rie": 8922,
      "pun": 8923,
      "versi": 8924,
      "uo": 8925,
      "valu": 8926,
      "Si": 8927,
      "dente": 8928,
      "ber": 8929,
      "des": 8930,
      "pazienti": 8931,
      "comple": 8932,
      "dall": 8933,
      "mili": 8934,
      "199": 8935,
      "you": 8936,
      "ld": 8937,
      "15": 8938,
      "possi": 8939,
      "cir": 8940,
      "tale": 8941,
      "pla": 8942,
      "peri": 8943,
      "sotto": 8944,
      "risul": 8945,
      "zzo": 8946,
      "zo": 8947,
      "quali": 8948,
      "12": 8949,
      "line": 8950,
      "dello": 8951,
      "ct": 8952,
      "from": 8953,
      "verso": 8954,
      "let": 8955,
      "far": 8956,
      "solo": 8957,
      "sh": 8958,
      "Pa": 8959,
      "questi": 8960,
      "ction": 8961,
      "sin": 8962,
      "this": 8963,
      "und": 8964,
      "glia": 8965,
      "was": 8966,
      "sem": 8967,
      "cessi": 8968,
      "allo": 8969,
      "od": 8970,
      "aff": 8971,
      "fatto": 8972,
      "tur": 8973,
      "vil": 8974,
      "mani": 8975,
      "rap": 8976,
      "spi": 8977,
      "giu": 8978,
      "ona": 8979,
      "produ": 8980,
      "auto": 8981,
      "tel": 8982,
      "cla": 8983,
      "De": 8984,
      "leg": 8985,
      "Quest": 8986,
      "ally": 8987,
      "olo": 8988,
      "tin": 8989,
      "cent": 8990,
      "impor": 8991,
      "prote": 8992,
      "whi": 8993,
      "scri": 8994,
      "mal": 8995,
      "assi": 8996,
      "No": 8997,
      "tutto": 8998,
      "perio": 8999,
      "bre": 9000,
      "gna": 9001,
      "ay": 9002,
      "sol": 9003,
      "org": 9004,
      "atore": 9005,
      "gru": 9006,
      "fil": 9007,
      "suc": 9008,
      "Uni": 9009,
      "euro": 9010,
      "ssa": 9011,
      "lan": 9012,
      "ture": 9013,
      "Com": 9014,
      "razione": 9015,
      "sì": 9016,
      "vere": 9017,
      "poi": 9018,
      "tica": 9019,
      "chia": 9020,
      "zionale": 9021,
      "her": 9022,
      "wor": 9023,
      "differ": 9024,
      "16": 9025,
      "17": 9026,
      "rante": 9027,
      "um": 9028,
      "dice": 9029,
      "feri": 9030,
      "ativo": 9031,
      "erano": 9032,
      "wn": 9033,
      "tempo": 9034,
      "present": 9035,
      "signi": 9036,
      "quanto": 9037,
      "Gi": 9038,
      "mbre": 9039,
      "ffici": 9040,
      "seri": 9041,
      "une": 9042,
      "tal": 9043,
      "tutti": 9044,
      "rico": 9045,
      "their": 9046,
      "altri": 9047,
      "princi": 9048,
      "base": 9049,
      "atteri": 9050,
      "14": 9051,
      "red": 9052,
      "tras": 9053,
      "utilizz": 9054,
      "questa": 9055,
      "don": 9056,
      "esa": 9057,
      "cità": 9058,
      "pren": 9059,
      "more": 9060,
      "Mar": 9061,
      "cco": 9062,
      "data": 9063,
      "sal": 9064,
      "meno": 9065,
      "tar": 9066,
      "pio": 9067,
      "ung": 9068,
      "stro": 9069,
      "tratta": 9070,
      "Po": 9071,
      "num": 9072,
      "siste": 9073,
      "anco": 9074,
      "qual": 9075,
      "they": 9076,
      "ane": 9077,
      "bas": 9078,
      "chio": 9079,
      "gener": 9080,
      "13": 9081,
      "lari": 9082,
      "visi": 9083,
      "Pro": 9084,
      "ding": 9085,
      "cazione": 9086,
      "Ri": 9087,
      "posta": 9088,
      "senza": 9089,
      "state": 9090,
      "So": 9091,
      "cesso": 9092,
      "tera": 9093,
      "into": 9094,
      "mag": 9095,
      "pp": 9096,
      "cul": 9097,
      "Un": 9098,
      "edi": 9099,
      "mia": 9100,
      "comuni": 9101,
      "condi": 9102,
      "ot": 9103,
      "Ne": 9104,
      "ms": 9105,
      "get": 9106,
      "ations": 9107,
      "modo": 9108,
      "maggio": 9109,
      "not": 9110,
      "ant": 9111,
      "bel": 9112,
      "have": 9113,
      "ong": 9114,
      "stre": 9115,
      "rebbe": 9116,
      "Ar": 9117,
      "viene": 9118,
      "colare": 9119,
      "atura": 9120,
      "quando": 9121,
      "vita": 9122,
      "importan": 9123,
      "grafi": 9124,
      "ide": 9125,
      "fini": 9126,
      "attività": 9127,
      "cle": 9128,
      "deci": 9129,
      "ok": 9130,
      "prov": 9131,
      "pos": 9132,
      "person": 9133,
      "Itali": 9134,
      "ph": 9135,
      "Do": 9136,
      "control": 9137,
      "stri": 9138,
      "corso": 9139,
      "rispetto": 9140,
      "studio": 9141,
      "quale": 9142,
      "segn": 9143,
      "zzazione": 9144,
      "care": 9145,
      "enze": 9146,
      "fre": 9147,
      "bio": 9148,
      "some": 9149,
      "ire": 9150,
      "cur": 9151,
      "servi": 9152,
      "dov": 9153,
      "volta": 9154,
      "tanto": 9155,
      "ated": 9156,
      "inte": 9157,
      "rego": 9158,
      "dotto": 9159,
      "ag": 9160,
      "para": 9161,
      "port": 9162,
      "ative": 9163,
      "nor": 9164,
      "dur": 9165,
      "qua": 9166,
      "fine": 9167,
      "dove": 9168,
      "ativa": 9169,
      "ence": 9170,
      "caso": 9171,
      "studi": 9172,
      "posto": 9173,
      "livel": 9174,
      "anta": 9175,
      "form": 9176,
      "Lo": 9177,
      "tere": 9178,
      "fac": 9179,
      "Mi": 9180,
      "cellule": 9181,
      "ach": 9182,
      "ell": 9183,
      "molto": 9184,
      "To": 9185,
      "led": 9186,
      "cin": 9187,
      "tran": 9188,
      "Pi": 9189,
      "vilup": 9190,
      "lavo": 9191,
      "fra": 9192,
      "cit": 9193,
      "ves": 9194,
      "Li": 9195,
      "comp": 9196,
      "30": 9197,
      "Vi": 9198,
      "alità": 9199,
      "meri": 9200,
      "cl": 9201,
      "vari": 9202,
      "atori": 9203,
      "Ca": 9204,
      "ang": 9205,
      "inve": 9206,
      "mp": 9207,
      "deter": 9208,
      "usa": 9209,
      "ater": 9210,
      "numero": 9211,
      "gia": 9212,
      "aggi": 9213,
      "fron": 9214,
      "ut": 9215,
      "ds": 9216,
      "low": 9217,
      "svilup": 9218,
      "mentre": 9219,
      "durante": 9220,
      "gram": 9221,
      "resi": 9222,
      "quella": 9223,
      "richi": 9224,
      "dai": 9225,
      "mostr": 9226,
      "altro": 9227,
      "gro": 9228,
      "how": 9229,
      "quello": 9230,
      "wo": 9231,
      "sing": 9232,
      "Mo": 9233,
      "NA": 9234,
      "primo": 9235,
      "stesso": 9236,
      "dati": 9237,
      "ltre": 9238,
      "messa": 9239,
      "tec": 9240,
      "25": 9241,
      "fino": 9242,
      "bia": 9243,
      "ari": 9244,
      "ogni": 9245,
      "eno": 9246,
      "Ch": 9247,
      "posizione": 9248,
      "anali": 9249,
      "ded": 9250,
      "contin": 9251,
      "moni": 9252,
      "denza": 9253,
      "lib": 9254,
      "ous": 9255,
      "così": 9256,
      "denti": 9257,
      "my": 9258,
      "bito": 9259,
      "sempre": 9260,
      "corre": 9261,
      "ancora": 9262,
      "fici": 9263,
      "appli": 9264,
      "11": 9265,
      "solu": 9266,
      "about": 9267,
      "gr": 9268,
      "pare": 9269,
      "ben": 9270,
      "contra": 9271,
      "sop": 9272,
      "porta": 9273,
      "rare": 9274,
      "gono": 9275,
      "biamo": 9276,
      "pressione": 9277,
      "esse": 9278,
      "esti": 9279,
      "memb": 9280,
      "ear": 9281,
      "rica": 9282,
      "Italia": 9283,
      "associ": 9284,
      "desi": 9285,
      "loc": 9286,
      "cli": 9287,
      "198": 9288,
      "proce": 9289,
      "king": 9290,
      "which": 9291,
      "gin": 9292,
      "secondo": 9293,
      "forni": 9294,
      "Tu": 9295,
      "ved": 9296,
      "guar": 9297,
      "gruppo": 9298,
      "ons": 9299,
      "caratteri": 9300,
      "proble": 9301,
      "aveva": 9302,
      "uso": 9303,
      "vato": 9304,
      "its": 9305,
      "vole": 9306,
      "evi": 9307,
      "uta": 9308,
      "24": 9309,
      "itali": 9310,
      "dimento": 9311,
      "rice": 9312,
      "dent": 9313,
      "consu": 9314,
      "cita": 9315,
      "ena": 9316,
      "inclu": 9317,
      "conten": 9318,
      "positi": 9319,
      "misu": 9320,
      "possono": 9321,
      "arri": 9322,
      "way": 9323,
      "etta": 9324,
      "quindi": 9325,
      "mine": 9326,
      "Fran": 9327,
      "disp": 9328,
      "Non": 9329,
      "ppi": 9330,
      "sensi": 9331,
      "000": 9332,
      "even": 9333,
      "22": 9334,
      "presente": 9335,
      "ting": 9336,
      "very": 9337,
      "ould": 9338,
      "pas": 9339,
      "missione": 9340,
      "risultati": 9341,
      "ling": 9342,
      "Su": 9343,
      "agli": 9344,
      "les": 9345,
      "volu": 9346,
      "signific": 9347,
      "azioni": 9348,
      "metri": 9349,
      "ance": 9350,
      "tico": 9351,
      "articolo": 9352,
      "princip": 9353,
      "50": 9354,
      "but": 9355,
      "mio": 9356,
      "sub": 9357,
      "enta": 9358,
      "già": 9359,
      "sar": 9360,
      "pol": 9361,
      "attra": 9362,
      "stica": 9363,
      "inizi": 9364,
      "pes": 9365,
      "sy": 9366,
      "sioni": 9367,
      "cci": 9368,
      "identi": 9369,
      "21": 9370,
      "altre": 9371,
      "econo": 9372,
      "attu": 9373,
      "super": 9374,
      "san": 9375,
      "capi": 9376,
      "enzi": 9377,
      "epi": 9378,
      "sser": 9379,
      "Ho": 9380,
      "lin": 9381,
      "veri": 9382,
      "limi": 9383,
      "tipo": 9384,
      "ster": 9385,
      "cat": 9386,
      "rat": 9387,
      "reali": 9388,
      "suoi": 9389,
      "smo": 9390,
      "dre": 9391,
      "rec": 9392,
      "poten": 9393,
      "potre": 9394,
      "ry": 9395,
      "sor": 9396,
      "negli": 9397,
      "dalle": 9398,
      "continu": 9399,
      "mica": 9400,
      "tribu": 9401,
      "insi": 9402,
      "sch": 9403,
      "effetti": 9404,
      "mina": 9405,
      "ute": 9406,
      "ep": 9407,
      "amb": 9408,
      "atte": 9409,
      "vero": 9410,
      "lun": 9411,
      "thing": 9412,
      "pag": 9413,
      "sca": 9414,
      "quad": 9415,
      "sistema": 9416,
      "pie": 9417,
      "mai": 9418,
      "ttore": 9419,
      "vare": 9420,
      "Car": 9421,
      "now": 9422,
      "stand": 9423,
      "gione": 9424,
      "197": 9425,
      "sce": 9426,
      "your": 9427,
      "aver": 9428,
      "zzato": 9429,
      "elli": 9430,
      "ans": 9431,
      "trattamento": 9432,
      "unque": 9433,
      "giorni": 9434,
      "strut": 9435,
      "diver": 9436,
      "serie": 9437,
      "over": 9438,
      "will": 9439,
      "sui": 9440,
      "tito": 9441,
      "rou": 9442,
      "bor": 9443,
      "eme": 9444,
      "società": 9445,
      "gene": 9446,
      "erra": 9447,
      "venti": 9448,
      "his": 9449,
      "lasci": 9450,
      "day": 9451,
      "zzi": 9452,
      "ving": 9453,
      "app": 9454,
      "mico": 9455,
      "23": 9456,
      "This": 9457,
      "For": 9458,
      "punto": 9459,
      "diri": 9460,
      "informa": 9461,
      "tori": 9462,
      "fare": 9463,
      "organi": 9464,
      "particolare": 9465,
      "bbero": 9466,
      "abb": 9467,
      "eli": 9468,
      "appro": 9469,
      "ob": 9470,
      "vent": 9471,
      "determin": 9472,
      "lamento": 9473,
      "ft": 9474,
      "any": 9475,
      "bene": 9476,
      "ora": 9477,
      "sull": 9478,
      "proprio": 9479,
      "perché": 9480,
      "bet": 9481,
      "has": 9482,
      "stiche": 9483,
      "prof": 9484,
      "ful": 9485,
      "tari": 9486,
      "tern": 9487,
      "Gli": 9488,
      "int": 9489,
      "consider": 9490,
      "corr": 9491,
      "cosa": 9492,
      "cata": 9493,
      "miglio": 9494,
      "under": 9495,
      "circa": 9496,
      "fir": 9497,
      "ttavia": 9498,
      "ener": 9499,
      "these": 9500,
      "comb": 9501,
      "ack": 9502,
      "coli": 9503,
      "osser": 9504,
      "were": 9505,
      "inten": 9506,
      "tain": 9507,
      "En": 9508,
      "cchi": 9509,
      "who": 9510,
      "Lu": 9511,
      "grande": 9512,
      "when": 9513,
      "ps": 9514,
      "spon": 9515,
      "sost": 9516,
      "rità": 9517,
      "anzi": 9518,
      "numb": 9519,
      "popo": 9520,
      "otten": 9521,
      "lega": 9522,
      "elet": 9523,
      "seguito": 9524,
      "porto": 9525,
      "met": 9526,
      "ann": 9527,
      "cessa": 9528,
      "logia": 9529,
      "sed": 9530,
      "acqui": 9531,
      "dare": 9532,
      "vide": 9533,
      "CO": 9534,
      "cate": 9535,
      "gover": 9536,
      "gui": 9537,
      "alcuni": 9538,
      "Da": 9539,
      "ello": 9540,
      "materi": 9541,
      "soli": 9542,
      "defini": 9543,
      "test": 9544,
      "ala": 9545,
      "rile": 9546,
      "deri": 9547,
      "successi": 9548,
      "diversi": 9549,
      "rale": 9550,
      "prece": 9551,
      "27": 9552,
      "oli": 9553,
      "città": 9554,
      "end": 9555,
      "nuovo": 9556,
      "tamente": 9557,
      "AR": 9558,
      "tele": 9559,
      "ativi": 9560,
      "like": 9561,
      "mondo": 9562,
      "there": 9563,
      "dotti": 9564,
      "alo": 9565,
      "work": 9566,
      "tata": 9567,
      "Ci": 9568,
      "tes": 9569,
      "tive": 9570,
      "Me": 9571,
      "TO": 9572,
      "vata": 9573,
      "vazione": 9574,
      "presso": 9575,
      "sur": 9576,
      "mes": 9577,
      "zionali": 9578,
      "ER": 9579,
      "196": 9580,
      "sulle": 9581,
      "Par": 9582,
      "IS": 9583,
      "res": 9584,
      "vidu": 9585,
      "geni": 9586,
      "raggi": 9587,
      "gine": 9588,
      "fol": 9589,
      "periodo": 9590,
      "modi": 9591,
      "lavoro": 9592,
      "clo": 9593,
      "ties": 9594,
      "pat": 9595,
      "atica": 9596,
      "program": 9597,
      "pers": 9598,
      "sue": 9599,
      "fore": 9600,
      "ust": 9601,
      "Mon": 9602,
      "campi": 9603,
      "die": 9604,
      "grafia": 9605,
      "tici": 9606,
      "ton": 9607,
      "mostrato": 9608,
      "mici": 9609,
      "other": 9610,
      "Tra": 9611,
      "post": 9612,
      "esem": 9613,
      "rin": 9614,
      "cy": 9615,
      "vati": 9616,
      "casi": 9617,
      "It": 9618,
      "individu": 9619,
      "We": 9620,
      "isce": 9621,
      "malatti": 9622,
      "attraverso": 9623,
      "tutte": 9624,
      "lui": 9625,
      "europe": 9626,
      "zzare": 9627,
      "semb": 9628,
      "sel": 9629,
      "Jo": 9630,
      "ghi": 9631,
      "time": 9632,
      "contr": 9633,
      "necessa": 9634,
      "oltre": 9635,
      "dy": 9636,
      "giorno": 9637,
      "cito": 9638,
      "ggior": 9639,
      "glie": 9640,
      "sk": 9641,
      "ger": 9642,
      "arsi": 9643,
      "vio": 9644,
      "them": 9645,
      "than": 9646,
      "cati": 9647,
      "vin": 9648,
      "ciò": 9649,
      "micro": 9650,
      "spor": 9651,
      "cca": 9652,
      "sopra": 9653,
      "Bo": 9654,
      "sup": 9655,
      "new": 9656,
      "Col": 9657,
      "ricer": 9658,
      "compa": 9659,
      "Gu": 9660,
      "atten": 9661,
      "indu": 9662,
      "rough": 9663,
      "dato": 9664,
      "vie": 9665,
      "terio": 9666,
      "she": 9667,
      "ness": 9668,
      "ast": 9669,
      "atur": 9670,
      "cano": 9671,
      "analisi": 9672,
      "As": 9673,
      "possibile": 9674,
      "pote": 9675,
      "commer": 9676,
      "pass": 9677,
      "gy": 9678,
      "venne": 9679,
      "sugg": 9680,
      "ficato": 9681,
      "gar": 9682,
      "descri": 9683,
      "sito": 9684,
      "tions": 9685,
      "fri": 9686,
      "sette": 9687,
      "ner": 9688,
      "ester": 9689,
      "if": 9690,
      "film": 9691,
      "also": 9692,
      "varia": 9693,
      "Na": 9694,
      "clini": 9695,
      "dita": 9696,
      "som": 9697,
      "interno": 9698,
      "Euro": 9699,
      "bli": 9700,
      "28": 9701,
      "invol": 9702,
      "two": 9703,
      "esta": 9704,
      "ll": 9705,
      "40": 9706,
      "causa": 9707,
      "entra": 9708,
      "zie": 9709,
      "ating": 9710,
      "ambi": 9711,
      "rato": 9712,
      "stenza": 9713,
      "spa": 9714,
      "rà": 9715,
      "had": 9716,
      "stante": 9717,
      "San": 9718,
      "fur": 9719,
      "multi": 9720,
      "Chi": 9721,
      "vor": 9722,
      "where": 9723,
      "Cor": 9724,
      "conte": 9725,
      "He": 9726,
      "setti": 9727,
      "pato": 9728,
      "costitu": 9729,
      "fami": 9730,
      "Bi": 9731,
      "cause": 9732,
      "Fi": 9733,
      "livello": 9734,
      "coun": 9735,
      "gato": 9736,
      "Questo": 9737,
      "informazioni": 9738,
      "cess": 9739,
      "invece": 9740,
      "seconda": 9741,
      "bamb": 9742,
      "bri": 9743,
      "cura": 9744,
      "capa": 9745,
      "tore": 9746,
      "dro": 9747,
      "26": 9748,
      "bra": 9749,
      "classi": 9750,
      "sl": 9751,
      "Pre": 9752,
      "ban": 9753,
      "regia": 9754,
      "rati": 9755,
      "nazionale": 9756,
      "otto": 9757,
      "vista": 9758,
      "dotta": 9759,
      "Wh": 9760,
      "less": 9761,
      "posti": 9762,
      "nome": 9763,
      "pan": 9764,
      "situ": 9765,
      "influ": 9766,
      "ella": 9767,
      "Una": 9768,
      "ments": 9769,
      "schi": 9770,
      "meto": 9771,
      "wer": 9772,
      "deve": 9773,
      "mana": 9774,
      "Du": 9775,
      "media": 9776,
      "tiche": 9777,
      "eser": 9778,
      "docu": 9779,
      "mesi": 9780,
      "presi": 9781,
      "ary": 9782,
      "conosci": 9783,
      "luo": 9784,
      "queste": 9785,
      "prog": 9786,
      "pul": 9787,
      "però": 9788,
      "rito": 9789,
      "grado": 9790,
      "tic": 9791,
      "preci": 9792,
      "onale": 9793,
      "mane": 9794,
      "Roma": 9795,
      "ossi": 9796,
      "Sa": 9797,
      "ggetti": 9798,
      "quelli": 9799,
      "missi": 9800,
      "scu": 9801,
      "eni": 9802,
      "ses": 9803,
      "would": 9804,
      "als": 9805,
      "EN": 9806,
      "trat": 9807,
      "termine": 9808,
      "cino": 9809,
      "professi": 9810,
      "etro": 9811,
      "ist": 9812,
      "ficazione": 9813,
      "momento": 9814,
      "storia": 9815,
      "tando": 9816,
      "controllo": 9817,
      "rischio": 9818,
      "erazione": 9819,
      "aci": 9820,
      "ning": 9821,
      "parteci": 9822,
      "most": 9823,
      "maggior": 9824,
      "volte": 9825,
      "tecni": 9826,
      "sviluppo": 9827,
      "ild": 9828,
      "Be": 9829,
      "29": 9830,
      "confron": 9831,
      "ak": 9832,
      "esempio": 9833,
      "hel": 9834,
      "III": 9835,
      "set": 9836,
      "IV": 9837,
      "anzia": 9838,
      "riferi": 9839,
      "anim": 9840,
      "sare": 9841,
      "frequ": 9842,
      "ose": 9843,
      "offer": 9844,
      "Ab": 9845,
      "Stati": 9846,
      "male": 9847,
      "tano": 9848,
      "fisi": 9849,
      "veni": 9850,
      "dra": 9851,
      "pon": 9852,
      "cazioni": 9853,
      "lato": 9854,
      "picco": 9855,
      "elo": 9856,
      "tivi": 9857,
      "mediante": 9858,
      "art": 9859,
      "plo": 9860,
      "persone": 9861,
      "senti": 9862,
      "forme": 9863,
      "noti": 9864,
      "sf": 9865,
      "consumato": 9866,
      "pure": 9867,
      "part": 9868,
      "farma": 9869,
      "specie": 9870,
      "may": 9871,
      "insieme": 9872,
      "pl": 9873,
      "ccan": 9874,
      "ruolo": 9875,
      "accor": 9876,
      "conclu": 9877,
      "pressi": 9878,
      "CA": 9879,
      "vento": 9880,
      "attro": 9881,
      "condizioni": 9882,
      "imm": 9883,
      "asp": 9884,
      "detto": 9885,
      "alto": 9886,
      "EL": 9887,
      "tate": 9888,
      "visione": 9889,
      "mano": 9890,
      "tru": 9891,
      "af": 9892,
      "abbiamo": 9893,
      "TA": 9894,
      "mare": 9895,
      "pic": 9896,
      "quanti": 9897,
      "casa": 9898,
      "infatti": 9899,
      "maggiore": 9900,
      "gue": 9901,
      "molti": 9902,
      "prodotto": 9903,
      "musi": 9904,
      "sm": 9905,
      "bil": 9906,
      "costru": 9907,
      "ativamente": 9908,
      "ward": 9909,
      "giov": 9910,
      "through": 9911,
      "corpo": 9912,
      "aumento": 9913,
      "vate": 9914,
      "cine": 9915,
      "land": 9916,
      "ely": 9917,
      "effetto": 9918,
      "scel": 9919,
      "ov": 9920,
      "what": 9921,
      "CE": 9922,
      "stin": 9923,
      "uld": 9924,
      "Mil": 9925,
      "zzata": 9926,
      "zzati": 9927,
      "dimen": 9928,
      "riguar": 9929,
      "mostra": 9930,
      "flu": 9931,
      "Te": 9932,
      "100": 9933,
      "presa": 9934,
      "meta": 9935,
      "stessa": 9936,
      "onista": 9937,
      "commerci": 9938,
      "cina": 9939,
      "natur": 9940,
      "60": 9941,
      "ween": 9942,
      "diverse": 9943,
      "confer": 9944,
      "potrebbe": 9945,
      "Dopo": 9946,
      "could": 9947,
      "nuova": 9948,
      "see": 9949,
      "occu": 9950,
      "apri": 9951,
      "Come": 9952,
      "simi": 9953,
      "dono": 9954,
      "ggetto": 9955,
      "ago": 9956,
      "modello": 9957,
      "colle": 9958,
      "ia": 9959,
      "lungo": 9960,
      "every": 9961,
      "stat": 9962,
      "immag": 9963,
      "jec": 9964,
      "produzione": 9965,
      "generale": 9966,
      "ado": 9967,
      "camente": 9968,
      "ffica": 9969,
      "ational": 9970,
      "impe": 9971,
      "appar": 9972,
      "plan": 9973,
      "quelle": 9974,
      "ature": 9975,
      "195": 9976,
      "ory": 9977,
      "dif": 9978,
      "respon": 9979,
      "dici": 9980,
      "sequ": 9981,
      "Ni": 9982,
      "dol": 9983,
      "espressione": 9984,
      "distri": 9985,
      "spesso": 9986,
      "New": 9987,
      "sempli": 9988,
      "tivo": 9989,
      "entro": 9990,
      "aro": 9991,
      "stabili": 9992,
      "prodotti": 9993,
      "avere": 9994,
      "glo": 9995,
      "first": 9996,
      "bar": 9997,
      "mino": 9998,
      "contribu": 9999,
      "oggi": 10000,
      "foto": 10001,
      "dipen": 10002,
      "pari": 10003,
      "between": 10004,
      "year": 10005,
      "uomo": 10006,
      "off": 10007,
      "duzione": 10008,
      "rispon": 10009,
      "paro": 10010,
      "tipi": 10011,
      "sarà": 10012,
      "quattro": 10013,
      "figu": 10014,
      "massi": 10015,
      "real": 10016,
      "senso": 10017,
      "messaggio": 10018,
      "bro": 10019,
      "cure": 10020,
      "Ino": 10021,
      "abi": 10022,
      "Ad": 10023,
      "origin": 10024,
      "sion": 10025,
      "Gio": 10026,
      "creto": 10027,
      "presenta": 10028,
      "stico": 10029,
      "poco": 10030,
      "altra": 10031,
      "ettu": 10032,
      "Or": 10033,
      "Sono": 10034,
      "194": 10035,
      "Inoltre": 10036,
      "nello": 10037,
      "nove": 10038,
      "age": 10039,
      "guerra": 10040,
      "sis": 10041,
      "main": 10042,
      "quasi": 10043,
      "blo": 10044,
      "rima": 10045,
      "cho": 10046,
      "sola": 10047,
      "utilizzando": 10048,
      "comune": 10049,
      "effica": 10050,
      "unità": 10051,
      "fran": 10052,
      "sim": 10053,
      "riti": 10054,
      "conto": 10055,
      "fonda": 10056,
      "Ber": 10057,
      "livelli": 10058,
      "ziona": 10059,
      "mali": 10060,
      "colla": 10061,
      "risposta": 10062,
      "tario": 10063,
      "distribu": 10064,
      "centra": 10065,
      "lingu": 10066,
      "anze": 10067,
      "ei": 10068,
      "pur": 10069,
      "inst": 10070,
      "superio": 10071,
      "ople": 10072,
      "function": 10073,
      "Cam": 10074,
      "disponi": 10075,
      "potenzi": 10076,
      "LA": 10077,
      "formazione": 10078,
      "famiglia": 10079,
      "IO": 10080,
      "br": 10081,
      "filo": 10082,
      "sarebbe": 10083,
      "cresci": 10084,
      "Auto": 10085,
      "back": 10086,
      "fle": 10087,
      "malattia": 10088,
      "len": 10089,
      "detta": 10090,
      "poste": 10091,
      "visto": 10092,
      "terapia": 10093,
      "vers": 10094,
      "quo": 10095,
      "servizio": 10096,
      "geno": 10097,
      "sha": 10098,
      "cili": 10099,
      "vengono": 10100,
      "been": 10101,
      "SA": 10102,
      "know": 10103,
      "consegu": 10104,
      "importante": 10105,
      "alcune": 10106,
      "lat": 10107,
      "meccan": 10108,
      "each": 10109,
      "segnal": 10110,
      "nas": 10111,
      "follow": 10112,
      "Ameri": 10113,
      "ned": 10114,
      "number": 10115,
      "area": 10116,
      "otti": 10117,
      "lear": 10118,
      "then": 10119,
      "ity": 10120,
      "ys": 10121,
      "strate": 10122,
      "presenza": 10123,
      "while": 10124,
      "such": 10125,
      "esperi": 10126,
      "este": 10127,
      "funzione": 10128,
      "strazione": 10129,
      "cha": 10130,
      "IN": 10131,
      "settembre": 10132,
      "ough": 10133,
      "tanti": 10134,
      "prat": 10135,
      "vali": 10136,
      "gisl": 10137,
      "prese": 10138,
      "pubblica": 10139,
      "iscono": 10140,
      "ricerca": 10141,
      "correl": 10142,
      "concentra": 10143,
      "donne": 10144,
      "35": 10145,
      "sure": 10146,
      "spazi": 10147,
      "cep": 10148,
      "ultimo": 10149,
      "cere": 10150,
      "dito": 10151,
      "gesti": 10152,
      "conosc": 10153,
      "favo": 10154,
      "qualche": 10155,
      "equi": 10156,
      "provve": 10157,
      "ries": 10158,
      "neg": 10159,
      "star": 10160,
      "trova": 10161,
      "alli": 10162,
      "inferi": 10163,
      "compren": 10164,
      "fatti": 10165,
      "vono": 10166,
      "opera": 10167,
      "mod": 10168,
      "morte": 10169,
      "naio": 10170,
      "dicembre": 10171,
      "aggiun": 10172,
      "cted": 10173,
      "miche": 10174,
      "acqua": 10175,
      "sele": 10176,
      "effettu": 10177,
      "ela": 10178,
      "rus": 10179,
      "only": 10180,
      "down": 10181,
      "elle": 10182,
      "ministr": 10183,
      "conta": 10184,
      "giorn": 10185,
      "ilo": 10186,
      "ced": 10187,
      "prattutto": 10188,
      "Ra": 10189,
      "promo": 10190,
      "gruppi": 10191,
      "cr": 10192,
      "fase": 10193,
      "deli": 10194,
      "primi": 10195,
      "ws": 10196,
      "velo": 10197,
      "cs": 10198,
      "ree": 10199,
      "comporta": 10200,
      "using": 10201,
      "milioni": 10202,
      "forte": 10203,
      "31": 10204,
      "Fo": 10205,
      "aper": 10206,
      "ww": 10207,
      "cambia": 10208,
      "ath": 10209,
      "Go": 10210,
      "caratteristiche": 10211,
      "Au": 10212,
      "IL": 10213,
      "asi": 10214,
      "model": 10215,
      "cap": 10216,
      "specifi": 10217,
      "tradi": 10218,
      "many": 10219,
      "discu": 10220,
      "luglio": 10221,
      "rappresent": 10222,
      "Consi": 10223,
      "amin": 10224,
      "ura": 10225,
      "gennaio": 10226,
      "ita": 10227,
      "invi": 10228,
      "sei": 10229,
      "diagno": 10230,
      "bambini": 10231,
      "interpre": 10232,
      "grandi": 10233,
      "80": 10234,
      "Tuttavia": 10235,
      "radi": 10236,
      "portato": 10237,
      "just": 10238,
      "secolo": 10239,
      "esto": 10240,
      "arch": 10241,
      "ottobre": 10242,
      "tuo": 10243,
      "marzo": 10244,
      "linea": 10245,
      "avevano": 10246,
      "ates": 10247,
      "soprattutto": 10248,
      "messo": 10249,
      "rea": 10250,
      "Ver": 10251,
      "lead": 10252,
      "ficare": 10253,
      "video": 10254,
      "cento": 10255,
      "gare": 10256,
      "eria": 10257,
      "bal": 10258,
      "ind": 10259,
      "relazione": 10260,
      "giugno": 10261,
      "lazioni": 10262,
      "Ti": 10263,
      "hu": 10264,
      "people": 10265,
      "net": 10266,
      "spie": 10267,
      "dri": 10268,
      "procedu": 10269,
      "deva": 10270,
      "comma": 10271,
      "reli": 10272,
      "lettera": 10273,
      "campo": 10274,
      "Im": 10275,
      "inoltre": 10276,
      "febb": 10277,
      "ppe": 10278,
      "ghe": 10279,
      "incre": 10280,
      "sum": 10281,
      "qualità": 10282,
      "ks": 10283,
      "matica": 10284,
      "processo": 10285,
      "dedi": 10286,
      "dagli": 10287,
      "terra": 10288,
      "chiam": 10289,
      "ola": 10290,
      "ES": 10291,
      "pratica": 10292,
      "both": 10293,
      "istitu": 10294,
      "rispetti": 10295,
      "sud": 10296,
      "dendo": 10297,
      "tuale": 10298,
      "propria": 10299,
      "legge": 10300,
      "moder": 10301,
      "vid": 10302,
      "frat": 10303,
      "toni": 10304,
      "capacità": 10305,
      "Ru": 10306,
      "mentare": 10307,
      "mbi": 10308,
      "infe": 10309,
      "fru": 10310,
      "TI": 10311,
      "AN": 10312,
      "torno": 10313,
      "Milano": 10314,
      "rivel": 10315,
      "diretta": 10316,
      "did": 10317,
      "ade": 10318,
      "alth": 10319,
      "note": 10320,
      "mentale": 10321,
      "tempor": 10322,
      "cellulare": 10323,
      "boli": 10324,
      "sità": 10325,
      "Commissione": 10326,
      "compu": 10327,
      "intro": 10328,
      "archi": 10329,
      "condo": 10330,
      "conser": 10331,
      "affi": 10332,
      "servizi": 10333,
      "Nella": 10334,
      "90": 10335,
      "mpi": 10336,
      "citi": 10337,
      "tent": 10338,
      "fosse": 10339,
      "hn": 10340,
      "totale": 10341,
      "reg": 10342,
      "rur": 10343,
      "ricor": 10344,
      "politica": 10345,
      "ccio": 10346,
      "fas": 10347,
      "tenti": 10348,
      "migli": 10349,
      "But": 10350,
      "36": 10351,
      "affer": 10352,
      "centro": 10353,
      "mite": 10354,
      "luogo": 10355,
      "ttura": 10356,
      "psi": 10357,
      "novembre": 10358,
      "those": 10359,
      "diven": 10360,
      "riferimento": 10361,
      "Bu": 10362,
      "svol": 10363,
      "struttura": 10364,
      "interess": 10365,
      "95": 10366,
      "cra": 10367,
      "til": 10368,
      "soggetti": 10369,
      "dina": 10370,
      "possibilità": 10371,
      "scon": 10372,
      "sov": 10373,
      "sts": 10374,
      "ttori": 10375,
      "tazioni": 10376,
      "ins": 10377,
      "forza": 10378,
      "versione": 10379,
      "mole": 10380,
      "Ger": 10381,
      "integr": 10382,
      "aprile": 10383,
      "wever": 10384,
      "valore": 10385,
      "lung": 10386,
      "frac": 10387,
      "van": 10388,
      "furono": 10389,
      "Bar": 10390,
      "rata": 10391,
      "governo": 10392,
      "RI": 10393,
      "onica": 10394,
      "crescita": 10395,
      "esclu": 10396,
      "able": 10397,
      "programma": 10398,
      "obi": 10399,
      "ctor": 10400,
      "34": 10401,
      "ismo": 10402,
      "Wi": 10403,
      "illi": 10404,
      "high": 10405,
      "emer": 10406,
      "din": 10407,
      "memo": 10408,
      "70": 10409,
      "episo": 10410,
      "durre": 10411,
      "2007": 10412,
      "successo": 10413,
      "syste": 10414,
      "right": 10415,
      "dul": 10416,
      "mette": 10417,
      "cali": 10418,
      "rapporto": 10419,
      "At": 10420,
      "ors": 10421,
      "unci": 10422,
      "pubblicita": 10423,
      "uffici": 10424,
      "arono": 10425,
      "ette": 10426,
      "Spa": 10427,
      "Universi": 10428,
      "Questi": 10429,
      "need": 10430,
      "mentazione": 10431,
      "stero": 10432,
      "compi": 10433,
      "Abbiamo": 10434,
      "2008": 10435,
      "ordin": 10436,
      "biso": 10437,
      "Pu": 10438,
      "precedente": 10439,
      "ase": 10440,
      "disco": 10441,
      "Ge": 10442,
      "ulla": 10443,
      "times": 10444,
      "after": 10445,
      "cale": 10446,
      "Ex": 10447,
      "siano": 10448,
      "tante": 10449,
      "minu": 10450,
      "gan": 10451,
      "alta": 10452,
      "egli": 10453,
      "titolo": 10454,
      "spo": 10455,
      "resul": 10456,
      "rando": 10457,
      "intervento": 10458,
      "nostro": 10459,
      "intra": 10460,
      "mercato": 10461,
      "xt": 10462,
      "inizio": 10463,
      "persona": 10464,
      "raio": 10465,
      "valutazione": 10466,
      "ying": 10467,
      "nucle": 10468,
      "metodo": 10469,
      "rit": 10470,
      "finanzia": 10471,
      "bility": 10472,
      "74": 10473,
      "2012": 10474,
      "liber": 10475,
      "onato": 10476,
      "rapi": 10477,
      "2010": 10478,
      "oggetto": 10479,
      "mus": 10480,
      "read": 10481,
      "mand": 10482,
      "rese": 10483,
      "Stato": 10484,
      "ters": 10485,
      "tane": 10486,
      "mone": 10487,
      "tutta": 10488,
      "ede": 10489,
      "2011": 10490,
      "misura": 10491,
      "virus": 10492,
      "TV": 10493,
      "sembra": 10494,
      "significativamente": 10495,
      "entemente": 10496,
      "progre": 10497,
      "avrebbe": 10498,
      "anne": 10499,
      "33": 10500,
      "giudi": 10501,
      "avuto": 10502,
      "obietti": 10503,
      "lon": 10504,
      "punti": 10505,
      "equ": 10506,
      "tramite": 10507,
      "well": 10508,
      "LE": 10509,
      "avvi": 10510,
      "cell": 10511,
      "Tor": 10512,
      "versa": 10513,
      "capo": 10514,
      "inda": 10515,
      "sche": 10516,
      "lavor": 10517,
      "ulterio": 10518,
      "Autorità": 10519,
      "Fa": 10520,
      "You": 10521,
      "exam": 10522,
      "raggiun": 10523,
      "infor": 10524,
      "febbraio": 10525,
      "ents": 10526,
      "indo": 10527,
      "imp": 10528,
      "2006": 10529,
      "med": 10530,
      "Decreto": 10531,
      "St": 10532,
      "cinque": 10533,
      "2013": 10534,
      "azi": 10535,
      "amente": 10536,
      "CD": 10537,
      "Ha": 10538,
      "sugger": 10539,
      "help": 10540,
      "2005": 10541,
      "soluzione": 10542,
      "ges": 10543,
      "Ste": 10544,
      "uomini": 10545,
      "Sal": 10546,
      "ordine": 10547,
      "mono": 10548,
      "curezza": 10549,
      "illu": 10550,
      "2009": 10551,
      "make": 10552,
      "ie": 10553,
      "ways": 10554,
      "different": 10555,
      "45": 10556,
      "found": 10557,
      "né": 10558,
      "diminu": 10559,
      "diritto": 10560,
      "idea": 10561,
      "sani": 10562,
      "mezzo": 10563,
      "coinvol": 10564,
      "Vo": 10565,
      "cch": 10566,
      "cando": 10567,
      "And": 10568,
      "tuttavia": 10569,
      "raga": 10570,
      "fattori": 10571,
      "zed": 10572,
      "37": 10573,
      "Gra": 10574,
      "comunicazione": 10575,
      "Questa": 10576,
      "chirur": 10577,
      "cation": 10578,
      "inazione": 10579,
      "compon": 10580,
      "requi": 10581,
      "Anche": 10582,
      "MA": 10583,
      "group": 10584,
      "Stu": 10585,
      "anda": 10586,
      "torn": 10587,
      "38": 10588,
      "tiva": 10589,
      "combin": 10590,
      "face": 10591,
      "rate": 10592,
      "presen": 10593,
      "pati": 10594,
      "semplice": 10595,
      "agosto": 10596,
      "bur": 10597,
      "scienti": 10598,
      "natura": 10599,
      "aument": 10600,
      "nonché": 10601,
      "basso": 10602,
      "mma": 10603,
      "accu": 10604,
      "lei": 10605,
      "TE": 10606,
      "stagione": 10607,
      "Val": 10608,
      "almeno": 10609,
      "rete": 10610,
      "deno": 10611,
      "manten": 10612,
      "sini": 10613,
      "elementi": 10614,
      "suffici": 10615,
      "rani": 10616,
      "effici": 10617,
      "ardi": 10618,
      "gam": 10619,
      "asse": 10620,
      "Sto": 10621,
      "passa": 10622,
      "vvi": 10623,
      "Now": 10624,
      "sostitu": 10625,
      "mg": 10626,
      "sent": 10627,
      "superfici": 10628,
      "nuovi": 10629,
      "gislativo": 10630,
      "vedere": 10631,
      "usi": 10632,
      "05": 10633,
      "porti": 10634,
      "voce": 10635,
      "piano": 10636,
      "trans": 10637,
      "popolazione": 10638,
      "arte": 10639,
      "superiore": 10640,
      "prime": 10641,
      "because": 10642,
      "side": 10643,
      "provvedimento": 10644,
      "PC": 10645,
      "inn": 10646,
      "within": 10647,
      "squad": 10648,
      "proba": 10649,
      "John": 10650,
      "paga": 10651,
      "book": 10652,
      "Af": 10653,
      "siti": 10654,
      "ily": 10655,
      "chan": 10656,
      "ggia": 10657,
      "voli": 10658,
      "italiano": 10659,
      "Fir": 10660,
      "erro": 10661,
      "understand": 10662,
      "used": 10663,
      "raccol": 10664,
      "2014": 10665,
      "principali": 10666,
      "On": 10667,
      "called": 10668,
      "old": 10669,
      "sicurezza": 10670,
      "gestione": 10671,
      "bab": 10672,
      "finale": 10673,
      "istru": 10674,
      "Ser": 10675,
      "eserci": 10676,
      "Man": 10677,
      "RA": 10678,
      "spet": 10679,
      "They": 10680,
      "allora": 10681,
      "matri": 10682,
      "hip": 10683,
      "iper": 10684,
      "movi": 10685,
      "erà": 10686,
      "modalità": 10687,
      "comm": 10688,
      "rano": 10689,
      "sio": 10690,
      "temper": 10691,
      "vuo": 10692,
      "cost": 10693,
      "2004": 10694,
      "luce": 10695,
      "lio": 10696,
      "duto": 10697,
      "mori": 10698,
      "proteina": 10699,
      "rsi": 10700,
      "procedimento": 10701,
      "rono": 10702,
      "atri": 10703,
      "inferiore": 10704,
      "mate": 10705,
      "gioni": 10706,
      "fr": 10707,
      "compli": 10708,
      "cioè": 10709,
      "divi": 10710,
      "DNA": 10711,
      "grazie": 10712,
      "geo": 10713,
      "velop": 10714,
      "investi": 10715,
      "look": 10716,
      "2000": 10717,
      "rispettivamente": 10718,
      "noi": 10719,
      "cambi": 10720,
      "39": 10721,
      "Che": 10722,
      "certo": 10723,
      "presenti": 10724,
      "formation": 10725,
      "tech": 10726,
      "asc": 10727,
      "tag": 10728,
      "onostante": 10729,
      "stici": 10730,
      "om": 10731,
      "vede": 10732,
      "aria": 10733,
      "ID": 10734,
      "One": 10735,
      "Europa": 10736,
      "Legislativo": 10737,
      "medio": 10738,
      "vanta": 10739,
      "stare": 10740,
      "ministrazione": 10741,
      "ricev": 10742,
      "prezzo": 10743,
      "gri": 10744,
      "sole": 10745,
      "pron": 10746,
      "taria": 10747,
      "zze": 10748,
      "Ap": 10749,
      "vir": 10750,
      "later": 10751,
      "cole": 10752,
      "ssimo": 10753,
      "water": 10754,
      "Uniti": 10755,
      "PA": 10756,
      "lingua": 10757,
      "idro": 10758,
      "cose": 10759,
      "2015": 10760,
      "lie": 10761,
      "remo": 10762,
      "32": 10763,
      "Quando": 10764,
      "assa": 10765,
      "membri": 10766,
      "riten": 10767,
      "digi": 10768,
      "principale": 10769,
      "peti": 10770,
      "tina": 10771,
      "pena": 10772,
      "complessi": 10773,
      "prove": 10774,
      "conti": 10775,
      "world": 10776,
      "indipen": 10777,
      "RE": 10778,
      "partico": 10779,
      "tidi": 10780,
      "traspor": 10781,
      "avven": 10782,
      "SE": 10783,
      "jo": 10784,
      "life": 10785,
      "genere": 10786,
      "pubblico": 10787,
      "radio": 10788,
      "proprietà": 10789,
      "allen": 10790,
      "ud": 10791,
      "esame": 10792,
      "48": 10793,
      "mata": 10794,
      "yo": 10795,
      "acco": 10796,
      "cchio": 10797,
      "stam": 10798,
      "point": 10799,
      "richiesta": 10800,
      "disa": 10801,
      "recetto": 10802,
      "92": 10803,
      "oro": 10804,
      "phy": 10805,
      "tesi": 10806,
      "sho": 10807,
      "ultima": 10808,
      "inse": 10809,
      "utilizzato": 10810,
      "regolamento": 10811,
      "realtà": 10812,
      "example": 10813,
      "manif": 10814,
      "giun": 10815,
      "matico": 10816,
      "show": 10817,
      "chè": 10818,
      "preso": 10819,
      "dolo": 10820,
      "something": 10821,
      "small": 10822,
      "All": 10823,
      "presidente": 10824,
      "batteri": 10825,
      "gazione": 10826,
      "Gre": 10827,
      "dità": 10828,
      "ccia": 10829,
      "Consiglio": 10830,
      "RNA": 10831,
      "acc": 10832,
      "tessu": 10833,
      "collo": 10834,
      "Fin": 10835,
      "ka": 10836,
      "consumatori": 10837,
      "riconosci": 10838,
      "samente": 10839,
      "Let": 10840,
      "sosten": 10841,
      "plas": 10842,
      "being": 10843,
      "xi": 10844,
      "eviden": 10845,
      "OS": 10846,
      "destin": 10847,
      "nuove": 10848,
      "bbene": 10849,
      "kes": 10850,
      "altern": 10851,
      "immedi": 10852,
      "fem": 10853,
      "here": 10854,
      "responsa": 10855,
      "usu": 10856,
      "corrispon": 10857,
      "caus": 10858,
      "fuori": 10859,
      "gel": 10860,
      "modelli": 10861,
      "numbers": 10862,
      "child": 10863,
      "long": 10864,
      "legg": 10865,
      "proteine": 10866,
      "NE": 10867,
      "occhi": 10868,
      "Cla": 10869,
      "partire": 10870,
      "war": 10871,
      "cani": 10872,
      "genza": 10873,
      "mettere": 10874,
      "dini": 10875,
      "peso": 10876,
      "him": 10877,
      "ciasc": 10878,
      "before": 10879,
      "2003": 10880,
      "meglio": 10881,
      "hy": 10882,
      "autori": 10883,
      "obbli": 10884,
      "table": 10885,
      "esterni": 10886,
      "pero": 10887,
      "adul": 10888,
      "locali": 10889,
      "ppa": 10890,
      "atamente": 10891,
      "ameri": 10892,
      "same": 10893,
      "cche": 10894,
      "during": 10895,
      "vanti": 10896,
      "onia": 10897,
      "should": 10898,
      "fondo": 10899,
      "around": 10900,
      "paziente": 10901,
      "cont": 10902,
      "comunque": 10903,
      "diffi": 10904,
      "citta": 10905,
      "Fu": 10906,
      "troppo": 10907,
      "gini": 10908,
      "CI": 10909,
      "another": 10910,
      "cancro": 10911,
      "nazionali": 10912,
      "try": 10913,
      "glu": 10914,
      "ink": 10915,
      "molte": 10916,
      "nero": 10917,
      "Giov": 10918,
      "necessario": 10919,
      "ordina": 10920,
      "logica": 10921,
      "2016": 10922,
      "Unione": 10923,
      "ond": 10924,
      "muo": 10925,
      "However": 10926,
      "mm": 10927,
      "progetto": 10928,
      "salute": 10929,
      "edu": 10930,
      "Can": 10931,
      "rebbero": 10932,
      "ultimi": 10933,
      "word": 10934,
      "anca": 10935,
      "speri": 10936,
      "mic": 10937,
      "applicazione": 10938,
      "problemi": 10939,
      "ings": 10940,
      "pazione": 10941,
      "find": 10942,
      "pere": 10943,
      "Note": 10944,
      "years": 10945,
      "cola": 10946,
      "catori": 10947,
      "govern": 10948,
      "DI": 10949,
      "neuro": 10950,
      "subito": 10951,
      "fli": 10952,
      "tecno": 10953,
      "scar": 10954,
      "opport": 10955,
      "vale": 10956,
      "nostra": 10957,
      "mese": 10958,
      "riguarda": 10959,
      "orbi": 10960,
      "tempi": 10961,
      "zzate": 10962,
      "standard": 10963,
      "dunque": 10964,
      "75": 10965,
      "99": 10966,
      "gas": 10967,
      "develop": 10968,
      "If": 10969,
      "agg": 10970,
      "acu": 10971,
      "gether": 10972,
      "ler": 10973,
      "Nor": 10974,
      "represent": 10975,
      "feno": 10976,
      "consid": 10977,
      "experi": 10978,
      "math": 10979,
      "case": 10980,
      "ico": 10981,
      "said": 10982,
      "scopo": 10983,
      "occa": 10984,
      "sangue": 10985,
      "estre": 10986,
      "lay": 10987,
      "made": 10988,
      "sosp": 10989,
      "inde": 10990,
      "wa": 10991,
      "DEL": 10992,
      "gest": 10993,
      "sociale": 10994,
      "2020": 10995,
      "scoper": 10996,
      "hand": 10997,
      "quar": 10998,
      "legamenti": 10999,
      "emo": 11000,
      "progetti": 11001,
      "giovani": 11002,
      "aga": 11003,
      "Codice": 11004,
      "ranno": 11005,
      "padre": 11006,
      "demo": 11007,
      "europea": 11008,
      "2017": 11009,
      "ssero": 11010,
      "place": 11011,
      "pal": 11012,
      "There": 11013,
      "dise": 11014,
      "ure": 11015,
      "pet": 11016,
      "dimostrato": 11017,
      "importanti": 11018,
      "mark": 11019,
      "immuno": 11020,
      "provi": 11021,
      "gente": 11022,
      "civi": 11023,
      "guida": 11024,
      "does": 11025,
      "esamin": 11026,
      "rius": 11027,
      "imag": 11028,
      "logico": 11029,
      "farmaci": 11030,
      "testi": 11031,
      "fronte": 11032,
      "paese": 11033,
      "necessi": 11034,
      "power": 11035,
      "ork": 11036,
      "figlio": 11037,
      "Tri": 11038,
      "valori": 11039,
      "guard": 11040,
      "fort": 11041,
      "Maria": 11042,
      "durata": 11043,
      "siasi": 11044,
      "gico": 11045,
      "viol": 11046,
      "sopravvi": 11047,
      "Ac": 11048,
      "kno": 11049,
      "pubblicato": 11050,
      "Gar": 11051,
[...]
